{
"<|endoftext|>": 0,
"<|padding|>": 1,
"!": 2,
"\"": 3,
"#": 4,
"$": 5,
"%": 6,
"&": 7,
"'": 8,
"(": 9,
")": 10,
"*": 11,
"+": 12,
",": 13,
"-": 14,
".": 15,
"/": 16,
"0": 17,
"1": 18,
"2": 19,
"3": 20,
"4": 21,
"5": 22,
"6": 23,
"7": 24,
"8": 25,
"9": 26,
":": 27,
";": 28,
"<": 29,
"=": 30,
">": 31,
"?": 32,
"@": 33,
"A": 34,
"B": 35,
"C": 36,
"D": 37,
"E": 38,
"F": 39,
"G": 40,
"H": 41,
"I": 42,
"J": 43,
"K": 44,
"L": 45,
"M": 46,
"N": 47,
"O": 48,
"P": 49,
"Q": 50,
"R": 51,
"S": 52,
"T": 53,
"U": 54,
"V": 55,
"W": 56,
"X": 57,
"Y": 58,
"Z": 59,
"[": 60,
"\\": 61,
"]": 62,
"^": 63,
"_": 64,
"`": 65,
"a": 66,
"b": 67,
"c": 68,
"d": 69,
"e": 70,
"f": 71,
"g": 72,
"h": 73,
"i": 74,
"j": 75,
"k": 76,
"l": 77,
"m": 78,
"n": 79,
"o": 80,
"p": 81,
"q": 82,
"r": 83,
"s": 84,
"t": 85,
"u": 86,
"v": 87,
"w": 88,
"x": 89,
"y": 90,
"z": 91,
"{": 92,
"|": 93,
"}": 94,
"~": 95,
"\u00a1": 96,
"\u00a2": 97,
"\u00a3": 98,
"\u00a4": 99,
"\u00a5": 100,
"\u00a6": 101,
"\u00a7": 102,
"\u00a8": 103,
"\u00a9": 104,
"\u00aa": 105,
"\u00ab": 106,
"\u00ac": 107,
"\u00ae": 108,
"\u00af": 109,
"\u00b0": 110,
"\u00b1": 111,
"\u00b2": 112,
"\u00b3": 113,
"\u00b4": 114,
"\u00b5": 115,
"\u00b6": 116,
"\u00b7": 117,
"\u00b8": 118,
"\u00b9": 119,
"\u00ba": 120,
"\u00bb": 121,
"\u00bc": 122,
"\u00bd": 123,
"\u00be": 124,
"\u00bf": 125,
"\u00c2": 126,
"\u00c3": 127,
"\u00c4": 128,
"\u00c5": 129,
"\u00c6": 130,
"\u00c7": 131,
"\u00c8": 132,
"\u00c9": 133,
"\u00ca": 134,
"\u00cb": 135,
"\u00cc": 136,
"\u00cd": 137,
"\u00ce": 138,
"\u00cf": 139,
"\u00d0": 140,
"\u00d1": 141,
"\u00d2": 142,
"\u00d3": 143,
"\u00d4": 144,
"\u00d5": 145,
"\u00d6": 146,
"\u00d7": 147,
"\u00d8": 148,
"\u00d9": 149,
"\u00da": 150,
"\u00db": 151,
"\u00dc": 152,
"\u00dd": 153,
"\u00de": 154,
"\u00df": 155,
"\u00e0": 156,
"\u00e1": 157,
"\u00e2": 158,
"\u00e3": 159,
"\u00e4": 160,
"\u00e5": 161,
"\u00e6": 162,
"\u00e7": 163,
"\u00e8": 164,
"\u00e9": 165,
"\u00ea": 166,
"\u00eb": 167,
"\u00ec": 168,
"\u00ed": 169,
"\u00ee": 170,
"\u00ef": 171,
"\u00f0": 172,
"\u00f1": 173,
"\u00f2": 174,
"\u00f3": 175,
"\u00f4": 176,
"\u0100": 177,
"\u0101": 178,
"\u0102": 179,
"\u0103": 180,
"\u0104": 181,
"\u0105": 182,
"\u0106": 183,
"\u0107": 184,
"\u0108": 185,
"\u0109": 186,
"\u010a": 187,
"\u010b": 188,
"\u010c": 189,
"\u010d": 190,
"\u010e": 191,
"\u010f": 192,
"\u0110": 193,
"\u0111": 194,
"\u0112": 195,
"\u0113": 196,
"\u0114": 197,
"\u0115": 198,
"\u0116": 199,
"\u0117": 200,
"\u0118": 201,
"\u0119": 202,
"\u011a": 203,
"\u011b": 204,
"\u011c": 205,
"\u011d": 206,
"\u011e": 207,
"\u011f": 208,
"\u0120": 209,
"\u0121": 210,
"\u0122": 211,
"\u0123": 212,
"\u0124": 213,
"\u0125": 214,
"\u0126": 215,
"\u0127": 216,
"\u0128": 217,
"\u0129": 218,
"\u012a": 219,
"\u012b": 220,
"\u012c": 221,
"\u012d": 222,
"\u012e": 223,
"\u012f": 224,
"\u0130": 225,
"\u0131": 226,
"\u0132": 227,
"\u0133": 228,
"\u0134": 229,
"\u0135": 230,
"\u0136": 231,
"\u0137": 232,
"\u0138": 233,
"\u0139": 234,
"\u013a": 235,
"\u013b": 236,
"\u013c": 237,
"\u013d": 238,
"\u013e": 239,
"\u013f": 240,
"\u0140": 241,
"\u0141": 242,
"\u0142": 243,
"\u0143": 244,
"\u0120\u0120": 245,
"\u0120t": 246,
"\u0120a": 247,
"he": 248,
"in": 249,
"re": 250,
"on": 251,
"\u0120\u0120\u0120\u0120": 252,
"\u0120the": 253,
"er": 254,
"at": 255,
"\u0120s": 256,
"en": 257,
"\u0120o": 258,
"\u0120w": 259,
"\u0120c": 260,
"is": 261,
"it": 262,
"or": 263,
"ed": 264,
"es": 265,
"an": 266,
"al": 267,
"\u0120p": 268,
"\u0120f": 269,
"\u0120b": 270,
"\u0120an": 271,
"ing": 272,
"\u0120of": 273,
"ar": 274,
"\u0120in": 275,
"ou": 276,
"\u0120d": 277,
"\u0120m": 278,
"ion": 279,
"ic": 280,
"\u0120to": 281,
"le": 282,
"--": 283,
"as": 284,
"\u0120and": 285,
"\u0120\u0120\u0120\u0120\u0120\u0120\u0120\u0120": 286,
"ro": 287,
"\u0120h": 288,
"\u0120th": 289,
"ent": 290,
"ct": 291,
"et": 292,
"el": 293,
"\u0120re": 294,
"\u0120n": 295,
"st": 296,
"om": 297,
"\u0120l": 298,
"\u0120e": 299,
"il": 300,
"id": 301,
"ot": 302,
"im": 303,
"ig": 304,
"\u0120g": 305,
"ve": 306,
"ut": 307,
"\u0120T": 308,
"\u0120I": 309,
"\u0120is": 310,
"ol": 311,
"am": 312,
"\u0120(": 313,
"ly": 314,
"----": 315,
"us": 316,
"ac": 317,
"ation": 318,
"ow": 319,
"\u0120be": 320,
"ur": 321,
"\u0120S": 322,
"\u0120for": 323,
"ad": 324,
"\u00e2\u0122": 325,
"\u0120that": 326,
"\u0120on": 327,
"un": 328,
"\u0120A": 329,
"\u0120C": 330,
"\u0120st": 331,
"ver": 332,
"ay": 333,
"ith": 334,
"ul": 335,
"ce": 336,
"\u01201": 337,
"if": 338,
"se": 339,
"\u0120y": 340,
"\u0120\u0120\u0120": 341,
"\u0120with": 342,
"ir": 343,
"\u0120he": 344,
"\u0120con": 345,
"\u0120\"": 346,
"\u0120as": 347,
"ch": 348,
"\u0120\u0120\u0120\u0120\u0120\u0120\u0120\u0120\u0120\u0120\u0120\u0120\u0120\u0120\u0120\u0120": 349,
"ter": 350,
"od": 351,
"\u0120it": 352,
"\u0120M": 353,
"\u0120pro": 354,
"\u0120al": 355,
"ag": 356,
"ab": 357,
"em": 358,
"\u0120we": 359,
"um": 360,
"00": 361,
"\u0120v": 362,
"ri": 363,
"\u0120wh": 364,
"pe": 365,
"ate": 366,
"\u0120P": 367,
"\u0120you": 368,
"\u0120was": 369,
"\u0120$": 370,
"qu": 371,
"\u0120de": 372,
"res": 373,
"\u01202": 374,
"os": 375,
"ra": 376,
"pp": 377,
"\u0120B": 378,
"her": 379,
"\u0120The": 380,
"==": 381,
"ist": 382,
"est": 383,
"ht": 384,
"\u0120ex": 385,
"ant": 386,
"\u0120at": 387,
"\u0120H": 388,
"\u0120com": 389,
"\u0120or": 390,
"\u0120r": 391,
"ld": 392,
"\u0120\\": 393,
"th": 394,
"and": 395,
"\u0120se": 396,
"--------": 397,
"ers": 398,
"\u0120D": 399,
"iv": 400,
"\u0120F": 401,
"\u0120su": 402,
"\u0120are": 403,
"ain": 404,
"ess": 405,
"oc": 406,
"\u0120by": 407,
"ill": 408,
"rom": 409,
"ore": 410,
"\u0120W": 411,
"op": 412,
"ke": 413,
"ity": 414,
"oun": 415,
"\u0120R": 416,
"\u0120not": 417,
"\u0120L": 418,
"\u0120ha": 419,
"ment": 420,
"ction": 421,
"ive": 422,
"end": 423,
"**": 424,
"\u0120ne": 425,
"\u0120=": 426,
"\u0120N": 427,
"\u0120-": 428,
"ight": 429,
"ort": 430,
"pt": 431,
"\u0120from": 432,
"red": 433,
"'s": 434,
"art": 435,
"\u0120this": 436,
"ell": 437,
"ud": 438,
"\u0120sh": 439,
"\u0120un": 440,
"\u0120us": 441,
"te": 442,
"\u0120G": 443,
"\u0120E": 444,
"ren": 445,
"pl": 446,
"ies": 447,
"\u0120ch": 448,
".\"": 449,
"ould": 450,
"ial": 451,
"\u0120have": 452,
"fe": 453,
"our": 454,
"all": 455,
"ated": 456,
"\u00e2\u0122\u013b": 457,
"\u0120le": 458,
"ure": 459,
"ine": 460,
"ust": 461,
"og": 462,
"ge": 463,
"{\\": 464,
"\u0120k": 465,
"ie": 466,
"\u0120\u0120\u0120\u0120\u0120\u0120\u0120": 467,
"per": 468,
"ich": 469,
"\u01200": 470,
"ack": 471,
"ard": 472,
"\u0120O": 473,
"ical": 474,
"\u0120*": 475,
"\u0120can": 476,
"\u010a\u0120\u0120\u0120": 477,
"iz": 478,
"\u0120me": 479,
"\u0120j": 480,
").": 481,
"ame": 482,
"out": 483,
"up": 484,
"ome": 485,
"age": 486,
"ib": 487,
"\u0120whe": 488,
"ue": 489,
"\u0120ab": 490,
"der": 491,
"\u0120tr": 492,
"ost": 493,
"able": 494,
"\u01203": 495,
"\u0120In": 496,
"\u0120were": 497,
"cl": 498,
"\u0120pl": 499,
"\u0120J": 500,
"\u0120res": 501,
"\u0120cl": 502,
"ult": 503,
"ide": 504,
"ast": 505,
"ath": 506,
"ans": 507,
"ther": 508,
"\u0120comp": 509,
"The": 510,
"ase": 511,
"\u0120all": 512,
"\u0120do": 513,
"act": 514,
"ass": 515,
"\u0120im": 516,
"ound": 517,
"ak": 518,
"\u0120ad": 519,
"01": 520,
"\u0120his": 521,
"ap": 522,
"\u0120cont": 523,
"====": 524,
"ign": 525,
"orm": 526,
"ind": 527,
"ous": 528,
"oug": 529,
"\u0120U": 530,
"one": 531,
"ip": 532,
"\u0120but": 533,
"\u0120which": 534,
"\u010a\u010a": 535,
"ok": 536,
"..": 537,
"ub": 538,
"ition": 539,
"\u0120int": 540,
"\u0120\u00e2\u0122": 541,
"\u0120\u0120\u0120\u0120\u0120\u0120\u0120\u0120\u0120\u0120\u0120\u0120\u0120\u0120\u0120\u0120\u0120\u0120\u0120\u0120\u0120\u0120\u0120\u0120\u0120\u0120\u0120\u0120\u0120\u0120\u0120\u0120": 542,
"ong": 543,
"\u0120[": 544,
"ph": 545,
"\u0120en": 546,
"ice": 547,
"\u0120wor": 548,
"\u0120ar": 549,
"cc": 550,
"\u0120{": 551,
"ary": 552,
"ime": 553,
"ep": 554,
"ty": 555,
"\u0120has": 556,
"\u0120dis": 557,
");": 558,
"\u0120+": 559,
"ress": 560,
"ens": 561,
"\u0120out": 562,
"du": 563,
"\u0120go": 564,
"int": 565,
"ence": 566,
"ff": 567,
"=\"": 568,
"ations": 569,
"ne": 570,
"ia": 571,
"\u0120qu": 572,
"----------------": 573,
"\u0120had": 574,
"\u00c2\u0142": 575,
"\u010a\u0120\u0120\u0120\u0120\u0120\u0120\u0120\u0120": 576,
"\u01204": 577,
"_{": 578,
"ru": 579,
"av": 580,
"\u0120one": 581,
"),": 582,
"ose": 583,
"ace": 584,
"con": 585,
"\u010a\u0120": 586,
"ile": 587,
"\u0120will": 588,
"ber": 589,
"ory": 590,
"\u0120per": 591,
"ents": 592,
"ance": 593,
"\u0120so": 594,
"ally": 595,
"\u0120Th": 596,
"\u0120they": 597,
"\u0120up": 598,
"}}": 599,
"ely": 600,
"so": 601,
"ough": 602,
"ire": 603,
"\u0120if": 604,
"//": 605,
"ang": 606,
"ach": 607,
"\u01205": 608,
"are": 609,
"ry": 610,
"\u0120K": 611,
"\u0120ev": 612,
"ear": 613,
"ite": 614,
"de": 615,
"\u0120their": 616,
"\u0120her": 617,
"\u0120sa": 618,
"\u0120my": 619,
"ll": 620,
"ions": 621,
"\u0120app": 622,
"\u0109\u0109": 623,
"rent": 624,
"\u0120more": 625,
"'t": 626,
"\u0120there": 627,
"own": 628,
"\u0120part": 629,
"form": 630,
"port": 631,
"\u0120li": 632,
"xt": 633,
"\u0120your": 634,
"very": 635,
"ord": 636,
"\u0120man": 637,
"\u0120pre": 638,
"\u0120ag": 639,
"ake": 640,
"ors": 641,
"\u0120no": 642,
"\u0120other": 643,
"\u0120been": 644,
"ook": 645,
"ect": 646,
"ail": 647,
"\u010a\u0120\u0120\u0120\u0120\u0120\u0120\u0120": 648,
"ft": 649,
"\u0120gr": 650,
"\u0120would": 651,
"vel": 652,
"\u0120sp": 653,
"\u0120<": 654,
"\u012019": 655,
"ys": 656,
"\u0120V": 657,
"ree": 658,
"\u0120St": 659,
"\u0120sc": 660,
"ks": 661,
"urn": 662,
"lic": 663,
"we": 664,
"\u0120who": 665,
"aus": 666,
"\u0120any": 667,
"\u00e2\u0122\u013f": 668,
"\u0120$\\": 669,
"\u0120about": 670,
"\u0120also": 671,
"\u0120when": 672,
"\u0120time": 673,
"\u0120\u0120\u0120\u0120\u0120": 674,
"reat": 675,
"low": 676,
"erv": 677,
"eth": 678,
"math": 679,
"wo": 680,
"com": 681,
"ata": 682,
"[@": 683,
"ates": 684,
"\u0120than": 685,
"\u0120'": 686,
"\u0120ro": 687,
"In": 688,
"\u0120over": 689,
"\u0120some": 690,
"\u0120ob": 691,
"ific": 692,
"erm": 693,
"\u0120kn": 694,
"ric": 695,
"\\]": 696,
"\u0120its": 697,
"ays": 698,
"fter": 699,
"hat": 700,
"\u0120bet": 701,
"ount": 702,
"\u0120she": 703,
"\u0120fe": 704,
"\u0120spe": 705,
"ob": 706,
"ces": 707,
"\u0120&": 708,
"ref": 709,
"ove": 710,
"\u0120des": 711,
"irst": 712,
"ple": 713,
"\u0120Y": 714,
"\u0120into": 715,
"\u0120te": 716,
"\u0120am": 717,
"\u0120ass": 718,
"cre": 719,
"ject": 720,
"\u01206": 721,
"\u0120dif": 722,
"ings": 723,
"}$": 724,
"rib": 725,
"\u0120sy": 726,
"ater": 727,
"ied": 728,
"ov": 729,
"\u0120gen": 730,
"\u0120them": 731,
"lect": 732,
"\u0120It": 733,
"\u0120inter": 734,
"vers": 735,
"row": 736,
"gr": 737,
"fect": 738,
"iss": 739,
"10": 740,
"clud": 741,
"hed": 742,
"\u0120An": 743,
"old": 744,
"\u0120off": 745,
"19": 746,
"\u0120new": 747,
"\u0120}": 748,
"\u0120sub": 749,
"ink": 750,
"\u0120like": 751,
"\u0120what": 752,
"\u0120said": 753,
"\u0120He": 754,
"\u0120get": 755,
"\u0120acc": 756,
"ian": 757,
"ced": 758,
"\u0120pe": 759,
"\u0120only": 760,
"\u0120rec": 761,
"\u0120under": 762,
"ish": 763,
"\u0120comm": 764,
"\u00e3\u0123": 765,
"ause": 766,
"\u0120two": 767,
"^{": 768,
"\u0120act": 769,
"itt": 770,
"\u0120mod": 771,
"\u0120cons": 772,
"\u0120\u00e2\u0122\u013e": 773,
"\u0120rel": 774,
"\u0120Ch": 775,
"\u0120our": 776,
"ck": 777,
"\u0120may": 778,
"\u0120him": 779,
"ual": 780,
"ick": 781,
"ark": 782,
"the": 783,
"ious": 784,
"ma": 785,
"ild": 786,
"\u0120bl": 787,
"get": 788,
"\u0120work": 789,
"ons": 790,
"\u0120bec": 791,
"ular": 792,
"ps": 793,
"\u0120fun": 794,
"\u0120_": 795,
"ade": 796,
"ert": 797,
"igh": 798,
"\u0120stud": 799,
"ative": 800,
"\u0120ind": 801,
"\u0120em": 802,
"\u0120pos": 803,
"ring": 804,
"12": 805,
"\u0120first": 806,
"\u0120year": 807,
"pect": 808,
"\u0120def": 809,
"\u0120reg": 810,
"\u0120trans": 811,
"\u0120could": 812,
"elf": 813,
"ug": 814,
"\u0120ph": 815,
"\u0120just": 816,
"##": 817,
"\u01207": 818,
"\u0120pr": 819,
"\u0120co": 820,
"\u0120val": 821,
"========": 822,
"\u0120add": 823,
"\u0120such": 824,
"ock": 825,
"\u0120la": 826,
"iew": 827,
"\u0120inv": 828,
"cess": 829,
"\u0120form": 830,
"\u0120This": 831,
"ef": 832,
"ased": 833,
"ont": 834,
"\u0120where": 835,
"ood": 836,
"oth": 837,
"\u0120pres": 838,
"ating": 839,
"\u0120then": 840,
"\u0120these": 841,
"oint": 842,
"\u0120det": 843,
"\u0120We": 844,
"\u0120diffe": 845,
"\u0120after": 846,
"\u0120col": 847,
"\u0120201": 848,
"\u0120how": 849,
"ient": 850,
"\u0120ret": 851,
"stem": 852,
"ode": 853,
"\u01208": 854,
"ween": 855,
"pro": 856,
"ond": 857,
"\u0120did": 858,
"ss": 859,
"\u00c3\u00a9": 860,
"\u0120sign": 861,
"olog": 862,
"\u0120att": 863,
"hen": 864,
"?\"": 865,
"\u0120exp": 866,
"\u0120rem": 867,
"les": 868,
"\u0120pat": 869,
"</": 870,
"\u0120know": 871,
"\u0120prov": 872,
"\u0120set": 873,
"ility": 874,
"\u0120between": 875,
"__": 876,
"\u0120pol": 877,
"\u0120need": 878,
"ople": 879,
"](": 880,
"type": 881,
"ict": 882,
"11": 883,
"\u012010": 884,
"ise": 885,
"ec": 886,
"ffect": 887,
"ident": 888,
"}\\": 889,
"ution": 890,
"\u0120i": 891,
"\u0120fl": 892,
"ta": 893,
"\u0120cell": 894,
"ix": 895,
"\u0120back": 896,
"\u0120use": 897,
"\u01209": 898,
"oy": 899,
"io": 900,
"ollow": 901,
"rit": 902,
"rough": 903,
".,": 904,
"\u0120\\[": 905,
"\u0120result": 906,
"ize": 907,
"\u0120used": 908,
"eg": 909,
"){": 910,
"ex": 911,
"ange": 912,
"\u0120ac": 913,
"\u0120Un": 914,
"\u0120supp": 915,
"cept": 916,
"ible": 917,
"right": 918,
"\u0120sur": 919,
"ning": 920,
"\u0120show": 921,
"fore": 922,
"\u0120see": 923,
"\u0120sm": 924,
"fr": 925,
"fig": 926,
"\u0120includ": 927,
"iel": 928,
"\u0120\u00d0": 929,
"\u0120num": 930,
"tern": 931,
"als": 932,
"000": 933,
"ble": 934,
"\u010a\u0120\u0120\u0120\u0120\u0120\u0120\u0120\u0120\u0120\u0120\u0120": 935,
"to": 936,
",\"": 937,
"20": 938,
"wn": 939,
"\u0120dist": 940,
"\u0120data": 941,
"ments": 942,
"\u0120should": 943,
"\u0120cor": 944,
"\u0120var": 945,
"\u0120spec": 946,
"ER": 947,
"\u0120sim": 948,
"\u0120through": 949,
"ourt": 950,
"cy": 951,
"\u0120people": 952,
"its": 953,
"\u0120most": 954,
"ues": 955,
"\u0120follow": 956,
"ruct": 957,
"\u0120fact": 958,
"ited": 959,
"ctions": 960,
"mer": 961,
"ull": 962,
"\u0120ty": 963,
"\u0120.": 964,
"li": 965,
"\u0120class": 966,
"ined": 967,
"ins": 968,
"\u0120again": 969,
"\u0120using": 970,
"\u0120want": 971,
"ever": 972,
"\u0120well": 973,
"ract": 974,
"ublic": 975,
"uch": 976,
"other": 977,
"\u0120inst": 978,
"\u0120\u0120\u0120\u0120\u0120\u0120": 979,
"ures": 980,
"uring": 981,
"ics": 982,
"ms": 983,
"\u0120because": 984,
"\u0120system": 985,
"\"}": 986,
"\u0120right": 987,
"\u010a\u0109\u0109": 988,
"inal": 989,
"\u0120end": 990,
"ax": 991,
"ateg": 992,
"pos": 993,
"\u0120ent": 994,
"\",": 995,
"\u010a\u0109": 996,
"\u0120requ": 997,
"St": 998,
"ew": 999,
"err": 1000,
"ield": 1001,
"\u0120produ": 1002,
"ement": 1003,
"ox": 1004,
"ities": 1005,
"\u0120gener": 1006,
"\u0120look": 1007,
"\u0120[@": 1008,
")$": 1009,
"15": 1010,
"oup": 1011,
"13": 1012,
"--------------------------------": 1013,
"\u0120even": 1014,
"\u010a\u0120\u0120\u0120\u0120\u0120\u0120\u0120\u0120\u0120\u0120\u0120\u0120\u0120\u0120\u0120": 1015,
"\u0120each": 1016,
"ower": 1017,
"\u0120char": 1018,
"]{": 1019,
"ful": 1020,
"\u0120ext": 1021,
"imes": 1022,
"\u0120Se": 1023,
"\u0120now": 1024,
"ized": 1025,
"sc": 1026,
"\u0120different": 1027,
"uc": 1028,
"\u0120high": 1029,
"\u0120const": 1030,
"ily": 1031,
"ars": 1032,
"sp": 1033,
"ward": 1034,
"(\\": 1035,
"16": 1036,
"ically": 1037,
"cond": 1038,
"\u0120way": 1039,
"\u0120|": 1040,
"hes": 1041,
"IN": 1042,
"\u010a\u0120\u0120\u0120\u0120\u0120": 1043,
"Th": 1044,
"\u0120el": 1045,
"\u0120every": 1046,
"14": 1047,
"\u0120long": 1048,
"\u0120ap": 1049,
"ational": 1050,
"...": 1051,
"\u0120200": 1052,
"\u0120don": 1053,
"\u0120min": 1054,
"\u0120effect": 1055,
"\u0120make": 1056,
"\u0120does": 1057,
"\u0120ke": 1058,
"let": 1059,
"\u0120here": 1060,
"\u0120par": 1061,
"ool": 1062,
"ger": 1063,
"ork": 1064,
"put": 1065,
"\u0120down": 1066,
"\u0120call": 1067,
"\u00d0\u00be": 1068,
"riv": 1069,
"led": 1070,
"\u0120test": 1071,
"\u0120same": 1072,
"\u0120di": 1073,
"ife": 1074,
"ention": 1075,
"ting": 1076,
"\u0120very": 1077,
"\u0120before": 1078,
"ale": 1079,
"ator": 1080,
"\u0120bu": 1081,
"()": 1082,
"\u0120case": 1083,
"](#": 1084,
"\u0120\u0120\u0120\u0120\u0120\u0120\u0120\u0120\u0120\u0120\u0120\u0120\u0120\u0120\u0120\u0120\u0120\u0120\u0120\u0120\u0120\u0120\u0120\u0120\u0120\u0120\u0120\u0120\u0120\u0120\u0120\u0120\u0120\u0120\u0120\u0120\u0120\u0120\u0120\u0120\u0120\u0120\u0120\u0120\u0120\u0120\u0120\u0120\u0120\u0120\u0120\u0120\u0120\u0120\u0120\u0120\u0120\u0120\u0120\u0120\u0120\u0120\u0120\u0120": 1085,
"\u0120dec": 1086,
"pr": 1087,
"read": 1088,
"\u0120find": 1089,
"ince": 1090,
"\u0120return": 1091,
"],": 1092,
"18": 1093,
"air": 1094,
"\u0120cur": 1095,
"ared": 1096,
"\u0120both": 1097,
"\u0120stat": 1098,
"25": 1099,
"ines": 1100,
"\u0120inte": 1101,
"rol": 1102,
"ants": 1103,
"ients": 1104,
"ym": 1105,
"way": 1106,
"\u0120years": 1107,
"\u0120\u00e2\u0122\u0135": 1108,
"rm": 1109,
"\u0120those": 1110,
"\u0120mat": 1111,
"\u0120bel": 1112,
"\u0120car": 1113,
"\u0120mon": 1114,
"\u0120anal": 1115,
"arch": 1116,
"\u0120partic": 1117,
"oci": 1118,
"\u0120found": 1119,
"rest": 1120,
"\u0120op": 1121,
"ript": 1122,
"ave": 1123,
"frac": 1124,
"\u0120aut": 1125,
"_{\\": 1126,
"\u0120point": 1127,
"\u00e2\u0122\u0136": 1128,
"\u0120med": 1129,
"ethod": 1130,
"ages": 1131,
"\u0120play": 1132,
"\u0120hand": 1133,
"****": 1134,
"upp": 1135,
"ann": 1136,
"ute": 1137,
"\">": 1138,
"ON": 1139,
"\u0120tra": 1140,
"\u0120incre": 1141,
"\u0120many": 1142,
"aint": 1143,
"\u0120est": 1144,
"An": 1145,
"\u0120being": 1146,
"It": 1147,
"par": 1148,
"\u0120gu": 1149,
"\u0120loc": 1150,
"\u0120ser": 1151,
"\u00d0\u00b0": 1152,
"\u0120pers": 1153,
"cent": 1154,
"velop": 1155,
"text": 1156,
"\u0120,": 1157,
"\u0120think": 1158,
"\u0120function": 1159,
"\u0120made": 1160,
"\u0120che": 1161,
"\u0120et": 1162,
"\u0120:": 1163,
"ank": 1164,
"\u0120Q": 1165,
"17": 1166,
"\u0120mem": 1167,
"->": 1168,
"ases": 1169,
"aking": 1170,
"of": 1171,
"\u0120exper": 1172,
"ev": 1173,
"\u0120exam": 1174,
"\u0120good": 1175,
"\u0120Com": 1176,
"ature": 1177,
"set": 1178,
"cal": 1179,
"\u0120number": 1180,
"]{}": 1181,
"\u0120z": 1182,
"\u0120resp": 1183,
"]\\]": 1184,
"\u0120dire": 1185,
"\u00e2\u0122\u012b": 1186,
"ason": 1187,
"\u010a\u0120\u0120\u0120\u0120\u0120\u0120\u0120\u0120\u0120\u0120\u0120\u0120\u0120\u0120\u0120\u0120": 1188,
"over": 1189,
"yl": 1190,
"\u0120\u00c2": 1191,
"\u0120appro": 1192,
"\u0120fil": 1193,
"AT": 1194,
"\u0120tri": 1195,
"rence": 1196,
"ody": 1197,
"\u0120For": 1198,
"\u0120much": 1199,
"sh": 1200,
"day": 1201,
"$\\": 1202,
"\u0120hel": 1203,
"ism": 1204,
"eng": 1205,
"tr": 1206,
"\u00d0\u00b5": 1207,
"val": 1208,
"cer": 1209,
"\u0120ins": 1210,
"\u0120own": 1211,
"app": 1212,
"\u0120str": 1213,
"\u0120@": 1214,
"ense": 1215,
"ner": 1216,
"}{": 1217,
"\u0120ra": 1218,
"\u0120Al": 1219,
"\u0120sol": 1220,
"ret": 1221,
"min": 1222,
"\u0120while": 1223,
"ought": 1224,
"ash": 1225,
"ather": 1226,
"\u0120/": 1227,
"))": 1228,
"30": 1229,
"ually": 1230,
"We": 1231,
"\u0120process": 1232,
"\u0120prote": 1233,
"\u0120rep": 1234,
"50": 1235,
"\u0120lar": 1236,
"32": 1237,
"oid": 1238,
"\u0120read": 1239,
"ah": 1240,
"els": 1241,
"ively": 1242,
"ained": 1243,
"\u0120And": 1244,
"ified": 1245,
"\u0120present": 1246,
"gan": 1247,
"formation": 1248,
"\u012012": 1249,
"ired": 1250,
"ng": 1251,
"201": 1252,
"\u00e2\u0122\u0135": 1253,
"\u0120\\[[@": 1254,
"ness": 1255,
"ression": 1256,
"be": 1257,
"fl": 1258,
"\u0120giv": 1259,
"\u0120som": 1260,
"ven": 1261,
"\u0120disc": 1262,
"\u0120study": 1263,
"\u0120three": 1264,
"\u0120start": 1265,
"gg": 1266,
"ST": 1267,
"\u0120level": 1268,
"\u0120x": 1269,
"\u0120great": 1270,
"ices": 1271,
"ved": 1272,
"\u0120second": 1273,
"left": 1274,
"\u0120ref": 1275,
"What": 1276,
"AR": 1277,
"alk": 1278,
"any": 1279,
"ategory": 1280,
"\u0120Let": 1281,
"line": 1282,
"\u012018": 1283,
"\u0120As": 1284,
"arly": 1285,
"self": 1286,
"\u0120develop": 1287,
"br": 1288,
"\u0120gl": 1289,
"\u0120poss": 1290,
"cul": 1291,
"\u0120But": 1292,
"\u0120without": 1293,
"\u0120Pro": 1294,
"alth": 1295,
"\u0120serv": 1296,
"ision": 1297,
"\u0120equ": 1298,
"ton": 1299,
"igned": 1300,
"amp": 1301,
"\u0120court": 1302,
"ument": 1303,
"\u0120report": 1304,
"\u0120dep": 1305,
"ole": 1306,
"\u0120term": 1307,
"\u0120br": 1308,
"\u0120during": 1309,
"\u0120If": 1310,
"CR": 1311,
"ouse": 1312,
"\u0120met": 1313,
"med": 1314,
"\u0120fr": 1315,
"uss": 1316,
"ams": 1317,
"\u0120value": 1318,
"ality": 1319,
"ization": 1320,
"ier": 1321,
"NA": 1322,
"\u0120av": 1323,
"mathb": 1324,
"\u0120\u00c3": 1325,
"erg": 1326,
"\u0120non": 1327,
"He": 1328,
"\u0120support": 1329,
"ffic": 1330,
"\u0120ant": 1331,
"\u0120method": 1332,
"\u0120say": 1333,
"ider": 1334,
"\u0120still": 1335,
"ters": 1336,
",\\": 1337,
"lement": 1338,
"\u0120let": 1339,
"\u0120order": 1340,
"\u0120cells": 1341,
"man": 1342,
"til": 1343,
"str": 1344,
"\u0120public": 1345,
"ists": 1346,
"\u0120perform": 1347,
"24": 1348,
"\u0120pa": 1349,
"ross": 1350,
"ane": 1351,
"$.": 1352,
"'m": 1353,
"raph": 1354,
"\u0120small": 1355,
"ided": 1356,
"\u00e3\u0124": 1357,
"://": 1358,
"\u0120How": 1359,
"dition": 1360,
"\u0120help": 1361,
"yn": 1362,
"\u0120patients": 1363,
"\u0120must": 1364,
"ially": 1365,
"$,": 1366,
"\u00d1\u0124": 1367,
"oh": 1368,
"amb": 1369,
"az": 1370,
"ency": 1371,
"OR": 1372,
"land": 1373,
"view": 1374,
"\u0120state": 1375,
"oad": 1376,
"anc": 1377,
"rt": 1378,
"\u0120take": 1379,
"\u0120//": 1380,
"\":": 1381,
"ving": 1382,
"',": 1383,
"\u012020": 1384,
"\u0120count": 1385,
"\u0120line": 1386,
"\u0120group": 1387,
"\u0120day": 1388,
"\u00d0\u00b8": 1389,
"\u0120last": 1390,
"\u0120cle": 1391,
"\u00c3\u00a4": 1392,
"\u0120appe": 1393,
"You": 1394,
"\u0120import": 1395,
"\u0120activ": 1396,
"ds": 1397,
"\u0120desc": 1398,
"\u0120cent": 1399,
"EN": 1400,
"\u0120**": 1401,
"ray": 1402,
"aw": 1403,
"\u0120prev": 1404,
"me": 1405,
"ron": 1406,
"\u0120ed": 1407,
"\u0120run": 1408,
"\u0120proble": 1409,
"ES": 1410,
"\u0120against": 1411,
"oot": 1412,
"Category": 1413,
"\u0120expl": 1414,
"\u0120signific": 1415,
"\u0120name": 1416,
"less": 1417,
"0000": 1418,
"ify": 1419,
"atic": 1420,
"\u0120lead": 1421,
"\u0120You": 1422,
"22": 1423,
"\u0120cre": 1424,
".\u00e2\u0122\u013f": 1425,
"irc": 1426,
"ulation": 1427,
"ished": 1428,
"\u0120child": 1429,
"ability": 1430,
"\u0120fam": 1431,
"aj": 1432,
"IT": 1433,
"acter": 1434,
"idence": 1435,
"\u0120person": 1436,
"\u0120quest": 1437,
"80": 1438,
"not": 1439,
"tt": 1440,
"ek": 1441,
"\u0120fin": 1442,
"ames": 1443,
"\u0120oper": 1444,
"\u0120art": 1445,
"meric": 1446,
"\\[": 1447,
"\u0120del": 1448,
"40": 1449,
"::": 1450,
"chn": 1451,
"que": 1452,
"\u0120control": 1453,
"\u0120\u00ce": 1454,
"ead": 1455,
"hip": 1456,
"\u0120New": 1457,
"\u012015": 1458,
"\u0120vari": 1459,
"\u0120pur": 1460,
"\u0120conf": 1461,
"\u0120stand": 1462,
"\u0120proper": 1463,
"eta": 1464,
"\u0120hy": 1465,
"Let": 1466,
"rict": 1467,
"aim": 1468,
"\u0120going": 1469,
"Fig": 1470,
"\u0120dem": 1471,
"'re": 1472,
"da": 1473,
"\u0120dev": 1474,
"\u0120around": 1475,
"!\"": 1476,
"ww": 1477,
"\u0120opt": 1478,
"ik": 1479,
"\u0120direct": 1480,
"\u0120head": 1481,
"ience": 1482,
"itive": 1483,
"\u0120u": 1484,
"\u0120inc": 1485,
"\u0120err": 1486,
"ides": 1487,
"\u0120wr": 1488,
"urther": 1489,
"(-": 1490,
"\u0120information": 1491,
"abel": 1492,
"ysis": 1493,
"pha": 1494,
"\u0120life": 1495,
"\u010a\u010a\u0120\u0120\u0120": 1496,
"ology": 1497,
"serv": 1498,
"\u0120sl": 1499,
"\u0120She": 1500,
"\u0120post": 1501,
"ots": 1502,
"\u0120Z": 1503,
"und": 1504,
"ource": 1505,
"atch": 1506,
"ets": 1507,
"23": 1508,
"\u0120pass": 1509,
"\u0120meas": 1510,
"\u0120type": 1511,
"\u0120too": 1512,
"arm": 1513,
"ium": 1514,
"ination": 1515,
"\u0120elect": 1516,
"\u0120bre": 1517,
"200": 1518,
"ott": 1519,
"ured": 1520,
"\u0120iss": 1521,
"ittle": 1522,
"ately": 1523,
"\u0120real": 1524,
"99": 1525,
"ething": 1526,
"\u0120open": 1527,
"ior": 1528,
"\u0120another": 1529,
"agn": 1530,
"\u0120cr": 1531,
"---": 1532,
"\u0120world": 1533,
"\u0120significant": 1534,
"\u0120Tr": 1535,
"\u0120Wh": 1536,
"\u0120might": 1537,
"ission": 1538,
"AN": 1539,
"64": 1540,
"gen": 1541,
"for": 1542,
"\u0120results": 1543,
"ral": 1544,
"def": 1545,
"ural": 1546,
"\u0120hum": 1547,
"\u0120ident": 1548,
"60": 1549,
"ains": 1550,
"\u0120rest": 1551,
"This": 1552,
"pec": 1553,
"\u0120mult": 1554,
"\u0120treat": 1555,
"AL": 1556,
"\u0120care": 1557,
"\u0120contin": 1558,
"bl": 1559,
"eral": 1560,
"\u0120within": 1561,
"ital": 1562,
"\u0120following": 1563,
"ivers": 1564,
"\u0120tem": 1565,
"\u0120model": 1566,
"ived": 1567,
"here": 1568,
"\u0120law": 1569,
"].": 1570,
"\u0120determ": 1571,
")\\": 1572,
"ording": 1573,
"ently": 1574,
"orn": 1575,
"ways": 1576,
"\u0120struct": 1577,
"\u0120es": 1578,
"\u0120lim": 1579,
"\u0120since": 1580,
"\u0120allow": 1581,
"akes": 1582,
"\u0120They": 1583,
"ote": 1584,
"aterial": 1585,
"duct": 1586,
"(\"": 1587,
"mathcal": 1588,
"ration": 1589,
"name": 1590,
"lex": 1591,
"fer": 1592,
"ional": 1593,
"\u0120X": 1594,
"att": 1595,
"arn": 1596,
"thing": 1597,
"ably": 1598,
"\u0120mean": 1599,
"\u0120interest": 1600,
"work": 1601,
"\u0120beh": 1602,
"}(": 1603,
"\u0120adv": 1604,
"\u0120De": 1605,
"\u0120wom": 1606,
"\u0120imp": 1607,
"\u0120Sh": 1608,
"\u0120occ": 1609,
"33": 1610,
"\u0120try": 1611,
"\u0120power": 1612,
"\u0120Americ": 1613,
"\u0120turn": 1614,
"by": 1615,
"\u0120mark": 1616,
"\u0120condition": 1617,
"\u0120list": 1618,
"28": 1619,
"\u0120never": 1620,
"\u0120No": 1621,
"ither": 1622,
"\u0120On": 1623,
"ential": 1624,
"\u0120sing": 1625,
"ury": 1626,
"ackage": 1627,
"\u00e2\u0122\u013e": 1628,
"\u0120sk": 1629,
"27": 1630,
"resent": 1631,
"iness": 1632,
"\u0120something": 1633,
"ves": 1634,
"\u0120addition": 1635,
"\u0120\u0120\u0120\u0120\u0120\u0120\u0120\u0120\u0120\u0120\u0120\u0120\u0120\u0120\u0120\u0120\u0120\u0120\u0120\u0120\u0120\u0120\u0120\u0120": 1636,
"alpha": 1637,
"\u012014": 1638,
"\u0120Cl": 1639,
"\u00d0\u00bd": 1640,
"ts": 1641,
"\u0120ask": 1642,
"\u0120few": 1643,
"ives": 1644,
"\u0120rece": 1645,
"\u0120seem": 1646,
"CT": 1647,
"iff": 1648,
"\u0120vis": 1649,
"\u0120example": 1650,
"chool": 1651,
"\u0120little": 1652,
"bers": 1653,
"\u0120happ": 1654,
"\u0120current": 1655,
"]\\].": 1656,
"ule": 1657,
"rop": 1658,
"\u0120place": 1659,
"\u0120redu": 1660,
"rel": 1661,
"arg": 1662,
"\u0120really": 1663,
"face": 1664,
"son": 1665,
"\u0120bas": 1666,
"ploy": 1667,
"\u012016": 1668,
"\u0120left": 1669,
"\u0120ve": 1670,
"35": 1671,
"Ex": 1672,
"\u0120field": 1673,
"\u00d1\u0123": 1674,
"\u0120respect": 1675,
"stand": 1676,
"\u0120given": 1677,
"dd": 1678,
"\u0120less": 1679,
"\u0120Is": 1680,
"\u0120commun": 1681,
"\u0120best": 1682,
"\u0120chang": 1683,
"\u0120pop": 1684,
"\u0120bus": 1685,
"ml": 1686,
"cript": 1687,
"hor": 1688,
"ho": 1689,
"\u0120including": 1690,
"\u0120put": 1691,
"ype": 1692,
"\u0120rele": 1693,
"\u0120got": 1694,
"ertain": 1695,
"htt": 1696,
"\u00d1\u0122": 1697,
"\u0120low": 1698,
"ining": 1699,
"osed": 1700,
"ised": 1701,
"================": 1702,
"ED": 1703,
"sec": 1704,
"\u0120come": 1705,
"34": 1706,
"\u0120There": 1707,
"\u0120light": 1708,
"\u0120associ": 1709,
"gram": 1710,
"\u0120old": 1711,
"\u0120{#": 1712,
"____": 1713,
"ope": 1714,
"eter": 1715,
"\u0120Con": 1716,
"29": 1717,
"\u0120invest": 1718,
"AS": 1719,
"\u0120Re": 1720,
"\u0120pot": 1721,
"\u012017": 1722,
"\u0120However": 1723,
"\u0120cal": 1724,
"\u0120hig": 1725,
"\u0120gover": 1726,
"ends": 1727,
"\u0120home": 1728,
"\u0120cap": 1729,
"oss": 1730,
"26": 1731,
"\u0120techn": 1732,
"\u0120mot": 1733,
"ety": 1734,
"\u0120next": 1735,
"\u0120arg": 1736,
"\u0120What": 1737,
"\u0120*/": 1738,
"apt": 1739,
"\u0120four": 1740,
"ivid": 1741,
"\u0120prob": 1742,
"^{\\": 1743,
"\u010a\u010a\u0120": 1744,
"\u0120typ": 1745,
"ength": 1746,
"reg": 1747,
"vert": 1748,
"\u0120199": 1749,
"\u0120claim": 1750,
"ene": 1751,
"abl": 1752,
"\u0120que": 1753,
"\u0120based": 1754,
"\u0120top": 1755,
"\u0120grow": 1756,
"\u00c3\u00a1": 1757,
"ina": 1758,
"\u0120observ": 1759,
"\u010a\u0120\u0120\u0120\u0120": 1760,
"rap": 1761,
"05": 1762,
"inc": 1763,
"\u0120$$\\": 1764,
"ump": 1765,
"\u0120bo": 1766,
"yt": 1767,
"bs": 1768,
"\u00e3\u0125": 1769,
"\u0120month": 1770,
"ery": 1771,
"\u010a\u0120\u0120": 1772,
"Con": 1773,
"\u0120important": 1774,
"\u0120sam": 1775,
"aining": 1776,
"\u0120Ph": 1777,
"\u0120indic": 1778,
"Ch": 1779,
"\u0120Ar": 1780,
"\u0120large": 1781,
"ribut": 1782,
"\u0120analysis": 1783,
"\u0120der": 1784,
"Re": 1785,
"\u0120health": 1786,
"37": 1787,
"lection": 1788,
"\u0120object": 1789,
"\u0120sit": 1790,
"\u0120leg": 1791,
"ari": 1792,
"ference": 1793,
"\u0120bi": 1794,
"\u0120bro": 1795,
"ee": 1796,
"21": 1797,
"\u0120particular": 1798,
"\u0120applic": 1799,
"\u0120describ": 1800,
"\u0120prof": 1801,
"\u0120belie": 1802,
"\u0120sugg": 1803,
"\u0120suggest": 1804,
"\u0120better": 1805,
",\u00e2\u0122\u013f": 1806,
"uck": 1807,
"ern": 1808,
"\u0120govern": 1809,
"\u0120Sc": 1810,
"roll": 1811,
"36": 1812,
"icro": 1813,
"mb": 1814,
"mun": 1815,
"arget": 1816,
"ird": 1817,
"\u0120change": 1818,
"\u00d0\u00be\u00d0": 1819,
"reen": 1820,
"\u0120men": 1821,
"uro": 1822,
"\u0120obt": 1823,
"\u0120water": 1824,
"aps": 1825,
"new": 1826,
"\u0120ide": 1827,
"ccess": 1828,
"ocument": 1829,
"IS": 1830,
"por": 1831,
"ats": 1832,
"'ll": 1833,
"ended": 1834,
"####": 1835,
"ambda": 1836,
"\u0120dr": 1837,
"ID": 1838,
"38": 1839,
"\u0120above": 1840,
"\u0120things": 1841,
"\u0120eas": 1842,
"LE": 1843,
"requ": 1844,
"Pro": 1845,
"\u0120common": 1846,
"\u0120Pl": 1847,
"RE": 1848,
"'ve": 1849,
"\u0120den": 1850,
"leg": 1851,
"\u0120#": 1852,
"\u00e2\u012a": 1853,
"\u0120path": 1854,
"\u0120mov": 1855,
"hib": 1856,
"45": 1857,
"ilar": 1858,
"\u0120view": 1859,
"plic": 1860,
"amma": 1861,
"elta": 1862,
"\u0120sw": 1863,
"IC": 1864,
"\u0120conne": 1865,
"ten": 1866,
"39": 1867,
"ples": 1868,
"\u0120thought": 1869,
"ctor": 1870,
"'d": 1871,
"\u0120hist": 1872,
"\u0120file": 1873,
"();": 1874,
"aring": 1875,
"\u0120All": 1876,
"ification": 1877,
"\u0120least": 1878,
"\u0120Fr": 1879,
"\u0120whether": 1880,
"\u0120self": 1881,
"pped": 1882,
"ream": 1883,
"\u012030": 1884,
"\u0120product": 1885,
"isk": 1886,
"oor": 1887,
"\u0120vers": 1888,
"\u0120Ex": 1889,
"$$": 1890,
"\u0120fail": 1891,
"\u0120hard": 1892,
"\u0120So": 1893,
"\u0120character": 1894,
"\u0120problem": 1895,
"\u0120possible": 1896,
"\u0120days": 1897,
"And": 1898,
"\u0120position": 1899,
"\u0120always": 1900,
"\u0120invol": 1901,
"\u0120expect": 1902,
"\u012011": 1903,
"\u0120didn": 1904,
"\u0120\u00e2\u0122\u0136": 1905,
"mu": 1906,
"\u0120having": 1907,
"\u0120consider": 1908,
"As": 1909,
"onse": 1910,
"add": 1911,
"\u0120won": 1912,
"action": 1913,
"ien": 1914,
"cur": 1915,
"\u0120To": 1916,
"\u0120sever": 1917,
"\u0120give": 1918,
"\u0120until": 1919,
"aut": 1920,
"\u0120reason": 1921,
"HE": 1922,
"ault": 1923,
"\u0120record": 1924,
"\u0120called": 1925,
"\u0120{\\": 1926,
"\u0120rese": 1927,
"\u0120feel": 1928,
"\u0120known": 1929,
"\u0120side": 1930,
"\u0120tot": 1931,
"\u0120\u0120\u0120\u0120\u0120\u0120\u0120\u0120\u0120\u0120\u0120": 1932,
")/": 1933,
"AC": 1934,
"ware": 1935,
"\u0120vol": 1936,
"\u0120opp": 1937,
"opy": 1938,
"ormal": 1939,
"co": 1940,
"\u0120evidence": 1941,
"ait": 1942,
"\u0120big": 1943,
"ij": 1944,
"ask": 1945,
"ending": 1946,
"ung": 1947,
"\u0120mus": 1948,
"rain": 1949,
"\u00c3\u0143": 1950,
"aces": 1951,
"au": 1952,
"\u0120question": 1953,
"\u00c3\u00b3": 1954,
"\u0120due": 1955,
"egin": 1956,
"\u0120represent": 1957,
"ividual": 1958,
"\u0120free": 1959,
"\u0120cour": 1960,
"\u0120avail": 1961,
"che": 1962,
"\u0120organ": 1963,
"\u0120prom": 1964,
"\u0120impro": 1965,
"\u0120human": 1966,
"70": 1967,
"label": 1968,
"\u0120--": 1969,
"iod": 1970,
"\u0120treatment": 1971,
"ances": 1972,
"\u0120build": 1973,
"acy": 1974,
"ological": 1975,
"75": 1976,
"\u0120away": 1977,
"\u0120keep": 1978,
"\u0120size": 1979,
"\u0120local": 1980,
"ling": 1981,
"\u0120US": 1982,
"imal": 1983,
"\u0120book": 1984,
"\u0120rad": 1985,
"\u0120United": 1986,
"cont": 1987,
"ison": 1988,
"But": 1989,
"}^{": 1990,
"mathbb": 1991,
"To": 1992,
"play": 1993,
"hy": 1994,
"ajor": 1995,
"\u0120later": 1996,
"\u0120Gr": 1997,
"rences": 1998,
"etic": 1999,
"}_": 2000,
"outh": 2001,
"iron": 2002,
"part": 2003,
"though": 2004,
"igma": 2005,
"\u0120Ad": 2006,
"\u0120further": 2007,
"epend": 2008,
"bar": 2009,
"\u0120else": 2010,
"\u0120shown": 2011,
"\u0120init": 2012,
"rem": 2013,
"\u0120single": 2014,
"********": 2015,
"idd": 2016,
"\u0120div": 2017,
"alse": 2018,
"Cl": 2019,
"\u0120sum": 2020,
"\u0120family": 2021,
"\u0120main": 2022,
"},": 2023,
"icle": 2024,
"ET": 2025,
"}_{": 2026,
"hing": 2027,
"\u0120tell": 2028,
"=\\": 2029,
"\u012025": 2030,
"44": 2031,
"\u0120true": 2032,
"\u0120</": 2033,
"sel": 2034,
"usion": 2035,
"\u0120net": 2036,
"ember": 2037,
"ready": 2038,
"\u0120offic": 2039,
"raw": 2040,
"pone": 2041,
"If": 2042,
"begin": 2043,
"var": 2044,
"\u0120previous": 2045,
"\u0120ey": 2046,
"ograph": 2047,
"\u0120expression": 2048,
"\u0120comb": 2049,
"inf": 2050,
"\u0120App": 2051,
"col": 2052,
"\u0120These": 2053,
"\u0120fri": 2054,
"88": 2055,
"mat": 2056,
"\u0120either": 2057,
"\u0120At": 2058,
"pi": 2059,
"\u0120individual": 2060,
"org": 2061,
"\u0120orig": 2062,
"\u0120pred": 2063,
"\u0120That": 2064,
"\u0120Col": 2065,
"uff": 2066,
"\u0120several": 2067,
"ext": 2068,
"\u0120times": 2069,
"\u0120Le": 2070,
"\u0120Bl": 2071,
"na": 2072,
"('": 2073,
"\u0120similar": 2074,
"\u0120pay": 2075,
"resp": 2076,
"\u0120States": 2077,
"\u0120lik": 2078,
"ressed": 2079,
"\u0120far": 2080,
"itor": 2081,
"65": 2082,
"enc": 2083,
"unt": 2084,
"\u0120provide": 2085,
"\u0120program": 2086,
"\u0120general": 2087,
"AP": 2088,
"usep": 2089,
"69": 2090,
"\u0120When": 2091,
"iment": 2092,
"\u0120cho": 2093,
"ift": 2094,
"iversity": 2095,
"\u0120understand": 2096,
"\u0120means": 2097,
"\u0120plan": 2098,
"usepackage": 2099,
"\u0120circ": 2100,
"\u0120Sp": 2101,
"\u0120Ind": 2102,
"alf": 2103,
"\u0120able": 2104,
"\u0120cost": 2105,
"\u00e2\u012a\u0134": 2106,
"ued": 2107,
"ours": 2108,
"nd": 2109,
"nal": 2110,
"\u0120Court": 2111,
"\u0120along": 2112,
"iple": 2113,
"aken": 2114,
"Com": 2115,
"ohn": 2116,
"\u0120abs": 2117,
"\u0120move": 2118,
"\u0120sure": 2119,
"\u0120full": 2120,
"oups": 2121,
"ered": 2122,
"ume": 2123,
"ergy": 2124,
"04": 2125,
"\u0120employ": 2126,
"\u0120code": 2127,
"\u0120jud": 2128,
"\u0120week": 2129,
"\u0120available": 2130,
"ister": 2131,
"aligned": 2132,
"\u0120body": 2133,
"angle": 2134,
"back": 2135,
"\u0120business": 2136,
"\u0120war": 2137,
"}$$": 2138,
"\u0120why": 2139,
"sw": 2140,
"\u00ce\u00b1": 2141,
"ocial": 2142,
"\u0120school": 2143,
"\u0120material": 2144,
"\u012013": 2145,
"ler": 2146,
"ched": 2147,
"cle": 2148,
"ored": 2149,
"\u0120phys": 2150,
"\u0120children": 2151,
"ser": 2152,
"oney": 2153,
"div": 2154,
"\u00e3\u0122": 2155,
"orth": 2156,
"\u0120infl": 2157,
"ering": 2158,
"\u0120short": 2159,
"\u0120sequ": 2160,
"osp": 2161,
"phi": 2162,
"mon": 2163,
"\u012024": 2164,
"\u0120game": 2165,
"itted": 2166,
"\u0120though": 2167,
"\u0120already": 2168,
"\u0120higher": 2169,
"\u0120area": 2170,
"\u0120diff": 2171,
"yle": 2172,
"\u0120specific": 2173,
"indow": 2174,
"\u0120studies": 2175,
"\u0120certain": 2176,
"\u0120vi": 2177,
"opt": 2178,
"iving": 2179,
"\u0120period": 2180,
"\u0120thing": 2181,
"ising": 2182,
"\u0120told": 2183,
"go": 2184,
"OU": 2185,
"\u0120hold": 2186,
"empt": 2187,
"mm": 2188,
"side": 2189,
"\u0120among": 2190,
"ney": 2191,
"\u0120inf": 2192,
"\u0120values": 2193,
"];": 2194,
"\u0120!": 2195,
"ards": 2196,
"\u0120sent": 2197,
"rist": 2198,
"\u0120project": 2199,
"ried": 2200,
"\u0120major": 2201,
"idth": 2202,
"data": 2203,
"sum": 2204,
"ley": 2205,
"\u0120sat": 2206,
"\u0120Or": 2207,
"\u0120government": 2208,
"\u0120eng": 2209,
"\u0120came": 2210,
"oper": 2211,
"illion": 2212,
"\u0120Res": 2213,
"For": 2214,
"\u0120dise": 2215,
"\u0120design": 2216,
"\u0120enough": 2217,
"\u0120done": 2218,
"\u0120cases": 2219,
"\u0120upon": 2220,
"\u0120super": 2221,
"95": 2222,
"\u0120often": 2223,
"ns": 2224,
"mit": 2225,
"\u0120exist": 2226,
"85": 2227,
"\u0120error": 2228,
"ustom": 2229,
"mission": 2230,
"lected": 2231,
"\u0120ele": 2232,
"\u0120100": 2233,
"\u0120key": 2234,
"\u0120pri": 2235,
"\u0120param": 2236,
"aster": 2237,
"\u0120kind": 2238,
"\u0120>": 2239,
"\u0120ben": 2240,
"olution": 2241,
"\u0120lay": 2242,
"\u0120mom": 2243,
"urs": 2244,
"\u0120port": 2245,
"ries": 2246,
"ament": 2247,
"\u0120prim": 2248,
"-\\": 2249,
"\u0120action": 2250,
"67": 2251,
"most": 2252,
"_\\": 2253,
"vent": 2254,
"\u0120women": 2255,
"\u0120subject": 2256,
"\u0120lot": 2257,
"\u0120coun": 2258,
"ape": 2259,
"lambda": 2260,
"ounds": 2261,
"):": 2262,
"\u0120Cal": 2263,
"\u0120total": 2264,
"eps": 2265,
"\u0120strong": 2266,
"II": 2267,
"\u0120crit": 2268,
"erc": 2269,
"90": 2270,
"ique": 2271,
"ables": 2272,
"\u0120fore": 2273,
"qrt": 2274,
"eb": 2275,
"fficient": 2276,
"OM": 2277,
"\u0120review": 2278,
"utes": 2279,
"\u0120mass": 2280,
"\u0120rate": 2281,
"\u0120course": 2282,
"\u0120pract": 2283,
"ai": 2284,
"\u0120team": 2285,
"\u0120\u0120\u0120\u0120\u0120\u0120\u0120\u0120\u0120": 2286,
"ands": 2287,
"\u0120sens": 2288,
"\u0120access": 2289,
"Tr": 2290,
"chan": 2291,
"ubl": 2292,
"LL": 2293,
"\u0120priv": 2294,
"\u0120==": 2295,
"\u0120says": 2296,
"\u0120neg": 2297,
"\u0120mor": 2298,
"\u0120however": 2299,
"AM": 2300,
"\u0120mil": 2301,
"No": 2302,
"\u0120target": 2303,
"\u0120mar": 2304,
"\u0120Mr": 2305,
"}^": 2306,
"mod": 2307,
"\u0120levels": 2308,
"return": 2309,
"ux": 2310,
"})": 2311,
"\u0120talk": 2312,
"100": 2313,
"\u0120polit": 2314,
"\u0120press": 2315,
"\u0120room": 2316,
"\u0120space": 2317,
"\u0120ple": 2318,
"\u0120discuss": 2319,
"af": 2320,
"aug": 2321,
"ibility": 2322,
"\u0120success": 2323,
"ores": 2324,
"\u0120Be": 2325,
"\u0120seen": 2326,
"use": 2327,
"\u0120dom": 2328,
"\u0120air": 2329,
"\u0120associated": 2330,
"ogn": 2331,
"\u0120trial": 2332,
"\u0120manag": 2333,
"\u0120caus": 2334,
"\u0120took": 2335,
"\u0120ver": 2336,
"fun": 2337,
"uit": 2338,
"ales": 2339,
"\u0120investig": 2340,
"\u0120energy": 2341,
"\u0120defend": 2342,
"\u0120lo": 2343,
"\u0120fac": 2344,
"ush": 2345,
"sequ": 2346,
"How": 2347,
"ened": 2348,
"\u0120enc": 2349,
"AD": 2350,
"ivity": 2351,
"ids": 2352,
"\u0120beg": 2353,
"SE": 2354,
"asing": 2355,
"cted": 2356,
"77": 2357,
"68": 2358,
"\u0120phot": 2359,
"\u0120night": 2360,
"\u0120reported": 2361,
"\u0120event": 2362,
"\u0120age": 2363,
"key": 2364,
"gether": 2365,
"\u0120together": 2366,
"\u0120${\\": 2367,
"uation": 2368,
"no": 2369,
"ories": 2370,
"rug": 2371,
"\u0120bit": 2372,
"iver": 2373,
"On": 2374,
"uf": 2375,
"stit": 2376,
"sub": 2377,
"\u0120once": 2378,
"\u010d\u010a": 2379,
"\u0120response": 2380,
"\u00c3\u00b6": 2381,
"ribution": 2382,
"bib": 2383,
"uppose": 2384,
"48": 2385,
"{{\\": 2386,
"\u0120)": 2387,
"inter": 2388,
"\u0120love": 2389,
"\u0120groups": 2390,
"....": 2391,
"ators": 2392,
"\u0120early": 2393,
"verage": 2394,
"\u0120account": 2395,
"conom": 2396,
"\u0120repl": 2397,
"\u0120Mar": 2398,
"bo": 2399,
"ged": 2400,
"ival": 2401,
"Name": 2402,
"\u0120making": 2403,
"itle": 2404,
"31": 2405,
"\u0120lower": 2406,
"mathbf": 2407,
"\u0120amount": 2408,
"ception": 2409,
"\u0120conv": 2410,
"viron": 2411,
"\u0120log": 2412,
"http": 2413,
"cret": 2414,
"OT": 2415,
"\u0120writ": 2416,
"55": 2417,
"\u0120State": 2418,
"\u0120house": 2419,
"table": 2420,
"ony": 2421,
"Al": 2422,
"ocus": 2423,
"\u0120required": 2424,
"\u0120activity": 2425,
"\u0120terms": 2426,
"\u0120went": 2427,
"cd": 2428,
"\u0120compared": 2429,
"\u0120require": 2430,
"IG": 2431,
"\u0120vir": 2432,
"osis": 2433,
"\u0120Co": 2434,
"angu": 2435,
"\u0120necess": 2436,
"class": 2437,
"\u0120aff": 2438,
"\u0120across": 2439,
"\u0120development": 2440,
"ection": 2441,
"\u0120potential": 2442,
"\u0120dou": 2443,
"\u0120working": 2444,
"clude": 2445,
"AA": 2446,
"Un": 2447,
"\u0120American": 2448,
"ION": 2449,
"\u0120inj": 2450,
"\u0120check": 2451,
"ension": 2452,
"\u0120cult": 2453,
"\u0120face": 2454,
"\u0120ever": 2455,
"\u012050": 2456,
"\u0120final": 2457,
"ians": 2458,
"\u0120ann": 2459,
"\u0120image": 2460,
"beta": 2461,
"\u0120%": 2462,
"\u010a\u0120\u0120\u0120\u0120\u0120\u0120\u0120\u0120\u0120": 2463,
".'": 2464,
"dex": 2465,
"rodu": 2466,
"\u00d0\u00b0\u00d0": 2467,
"ystem": 2468,
"\u0120past": 2469,
"\u0120([": 2470,
"\u0120death": 2471,
"\u0120ear": 2472,
"atory": 2473,
"iction": 2474,
"\u0120comput": 2475,
"ption": 2476,
"enn": 2477,
"atures": 2478,
"\u0120([@": 2479,
"mber": 2480,
"aintiff": 2481,
"essage": 2482,
"\u00e0\u00a4": 2483,
"wh": 2484,
"ga": 2485,
"\u0120include": 2486,
"ones": 2487,
"\u0120author": 2488,
"\u0120become": 2489,
"\u0120\u010a": 2490,
"\u0120range": 2491,
"iation": 2492,
"\u0120relations": 2493,
"\u0120micro": 2494,
"\u0120risk": 2495,
"ude": 2496,
"^{-": 2497,
"]).": 2498,
"\u0120University": 2499,
"\u0120tw": 2500,
"arrow": 2501,
"\u0120red": 2502,
"mp": 2503,
"47": 2504,
"\u0120text": 2505,
"\u0120doesn": 2506,
"\u0120exc": 2507,
"\u0120detail": 2508,
"\u0120doing": 2509,
"ges": 2510,
"89": 2511,
"There": 2512,
"Is": 2513,
"medi": 2514,
"\u0120conditions": 2515,
"\u0120John": 2516,
"une": 2517,
"----------------------------------------------------------------": 2518,
"\u00c2\u0142\u00c2\u0142": 2519,
"this": 2520,
"eters": 2521,
"head": 2522,
"\u0120issue": 2523,
"ilon": 2524,
"\u0120meet": 2525,
"66": 2526,
"lete": 2527,
"\u0120establ": 2528,
"\u0120described": 2529,
"\u0120provided": 2530,
"istic": 2531,
"uture": 2532,
"\u0120separ": 2533,
"\u0120bar": 2534,
"\u0120complet": 2535,
"\"}).": 2536,
"49": 2537,
"\u0120effects": 2538,
"\u0120respons": 2539,
"\u0120observed": 2540,
"respond": 2541,
"imate": 2542,
"\u0120mechan": 2543,
"\u0120changes": 2544,
"\u0120Eng": 2545,
"\u0120asked": 2546,
"ources": 2547,
"Type": 2548,
"\u0120frequ": 2549,
"\u0120cannot": 2550,
"span": 2551,
"\u0120May": 2552,
"\u0120surface": 2553,
"\u0120role": 2554,
"oll": 2555,
"\u0120according": 2556,
"\u0120measure": 2557,
"\u0120percent": 2558,
"\u0120increased": 2559,
"ibr": 2560,
"\u0120research": 2561,
"iter": 2562,
"\u0120ep": 2563,
"\u0120mind": 2564,
"\u0120cou": 2565,
"test": 2566,
"\u0120company": 2567,
"\u0120yet": 2568,
"atter": 2569,
"\u0120complex": 2570,
"\u0120others": 2571,
"\u0120increase": 2572,
"DE": 2573,
"eq": 2574,
"aced": 2575,
"icy": 2576,
"my": 2577,
"\u0120tre": 2578,
"\u0120service": 2579,
"\u010a\u0120\u0120\u0120\u0120\u0120\u0120\u0120\u0120\u0120\u0120\u0120\u0120\u0120\u0120\u0120\u0120\u0120\u0120\u0120": 2580,
"\u0120rather": 2581,
"\\_": 2582,
"\u0120money": 2583,
"\u0120toward": 2584,
"elt": 2585,
"\u0120country": 2586,
"irl": 2587,
"\u0120Gen": 2588,
"\u0120conduct": 2589,
"\u0120clear": 2590,
"illed": 2591,
"sigma": 2592,
"\u0120section": 2593,
"\u0120See": 2594,
"ground": 2595,
"\u0120One": 2596,
"87": 2597,
"So": 2598,
"\u00cf\u0126": 2599,
"\u0120content": 2600,
"\u0120protein": 2601,
"\u0120soft": 2602,
"\u0120source": 2603,
"\u0120Pr": 2604,
"\u0120structure": 2605,
"time": 2606,
"\u0120months": 2607,
"\u0120user": 2608,
"sqrt": 2609,
"ino": 2610,
"\u0120particip": 2611,
"bt": 2612,
"\u0120base": 2613,
"\u0120blood": 2614,
"\u0120Can": 2615,
"\u0120factors": 2616,
"pm": 2617,
"Id": 2618,
"\u0120pick": 2619,
"\u0120five": 2620,
"order": 2621,
"\u0120normal": 2622,
"ava": 2623,
"\u0120cut": 2624,
"\u0120signal": 2625,
"\u0120third": 2626,
"ucle": 2627,
"\u0120job": 2628,
"\u0120standard": 2629,
"\u0120compon": 2630,
"roid": 2631,
"Res": 2632,
"rix": 2633,
"\u0120`": 2634,
"\u0120Then": 2635,
"\u0120ce": 2636,
"ING": 2637,
"ceed": 2638,
"\u0120Car": 2639,
"02": 2640,
"Ph": 2641,
"\u0120dri": 2642,
"\u0120corre": 2643,
"\u0120whole": 2644,
"\u0120cy": 2645,
"ogen": 2646,
"\u0120matter": 2647,
"CC": 2648,
"nt": 2649,
"~~": 2650,
"ules": 2651,
"\u0120Br": 2652,
"ey": 2653,
"\u0120id": 2654,
"equ": 2655,
"\u0120God": 2656,
"\u010a\u0109\u0109\u0109": 2657,
"ixed": 2658,
"\u0120land": 2659,
"\u0120temper": 2660,
"\u0120calcul": 2661,
"ependent": 2662,
"rew": 2663,
"\u010a\u0109\u0109\u0109\u0109": 2664,
"ortun": 2665,
"now": 2666,
"\u0120Fig": 2667,
"\u0120taken": 2668,
"\u0120agre": 2669,
"\u0120site": 2670,
"vironment": 2671,
"ober": 2672,
"%)": 2673,
"\u0120\u0120\u0120\u0120\u0120\u0120\u0120\u0120\u0120\u0120": 2674,
"\u0120social": 2675,
"rr": 2676,
"\u0120quant": 2677,
"\u0120Coun": 2678,
"ache": 2679,
"minist": 2680,
"\u0120clin": 2681,
"itch": 2682,
"irm": 2683,
"\u0120performed": 2684,
"\u0120flow": 2685,
"\u0120actually": 2686,
"\u0120dam": 2687,
"artment": 2688,
"oph": 2689,
"mathrm": 2690,
"86": 2691,
"\u0120showed": 2692,
"09": 2693,
"raft": 2694,
"ops": 2695,
"AG": 2696,
"OS": 2697,
".)": 2698,
"arent": 2699,
"www": 2700,
"\u0120limit": 2701,
"icult": 2702,
"string": 2703,
"}{\\": 2704,
"ruction": 2705,
"ches": 2706,
"\u010a\u010a\u0120\u0120\u0120\u0120\u0120\u0120\u0120": 2707,
"\u0120below": 2708,
"\u0120multiple": 2709,
"\u0120various": 2710,
"alt": 2711,
"\u0120anything": 2712,
"bit": 2713,
"\u0120special": 2714,
"\u0120version": 2715,
"\u0120half": 2716,
"\u0120nothing": 2717,
"\u0120systems": 2718,
"\u0120Rep": 2719,
"\u0120prior": 2720,
"ze": 2721,
"\u0120shows": 2722,
"\u0120correspond": 2723,
"\u0120behav": 2724,
"\u0120demon": 2725,
"\u0120With": 2726,
"off": 2727,
"\u0120disease": 2728,
"ached": 2729,
"><": 2730,
"ires": 2731,
"\u0120After": 2732,
"gamma": 2733,
"\u0120clos": 2734,
"abor": 2735,
"\u0120detect": 2736,
"urope": 2737,
"ession": 2738,
"\u0120food": 2739,
"\u0120break": 2740,
"ensity": 2741,
"uration": 2742,
"\u0120regard": 2743,
"idered": 2744,
"\u0120Te": 2745,
"\u0120approach": 2746,
"gment": 2747,
"\u0120request": 2748,
"\u0120propos": 2749,
"\u0120benef": 2750,
"imum": 2751,
"\u0120My": 2752,
"\u0120syn": 2753,
"date": 2754,
"omet": 2755,
"\u010a\u010a\u010a": 2756,
"\u0120viol": 2757,
"\u0120members": 2758,
"84": 2759,
"big": 2760,
"\u0120almost": 2761,
"\u0120positive": 2762,
"\u0120\u0120\u0120\u0120\u0120\u0120\u0120\u0120\u0120\u0120\u0120\u0120\u0120\u0120\u0120\u0120\u0120\u0120\u0120\u0120\u0120\u0120\u0120\u0120\u0120\u0120\u0120\u0120\u0120\u0120\u0120\u0120\u0120\u0120\u0120\u0120\u0120\u0120\u0120\u0120\u0120\u0120\u0120\u0120\u0120\u0120\u0120\u0120\u0120\u0120\u0120\u0120\u0120\u0120\u0120\u0120\u0120\u0120\u0120\u0120\u0120\u0120\u0120\u0120\u0120\u0120\u0120\u0120\u0120\u0120\u0120\u0120\u0120\u0120\u0120\u0120\u0120\u0120\u0120\u0120\u0120\u0120\u0120\u0120\u0120\u0120\u0120\u0120\u0120\u0120\u0120\u0120\u0120\u0120\u0120\u0120\u0120\u0120\u0120\u0120\u0120\u0120\u0120\u0120\u0120\u0120\u0120\u0120\u0120\u0120\u0120\u0120\u0120\u0120\u0120\u0120\u0120\u0120\u0120\u0120\u0120\u0120\u0120\u0120\u0120\u0120\u0120\u0120": 2763,
"umber": 2764,
"List": 2765,
"+\\": 2766,
"inary": 2767,
"\u00c3\u00a5": 2768,
")(": 2769,
"\u0120focus": 2770,
"ero": 2771,
"cular": 2772,
"That": 2773,
"\u0120moment": 2774,
"CH": 2775,
"String": 2776,
"\u0120eval": 2777,
"ief": 2778,
"\u0120likely": 2779,
"\u0120ut": 2780,
"\u0120max": 2781,
"\u0120concer": 2782,
"\u0120considered": 2783,
"pping": 2784,
"\u0120||": 2785,
"\u0120concent": 2786,
"79": 2787,
"uk": 2788,
"\u0120makes": 2789,
"\u0120Pat": 2790,
"\u0120market": 2791,
"\u0120points": 2792,
"\u0120experience": 2793,
"\u0120create": 2794,
"OP": 2795,
"\u0120(*": 2796,
"\u0120obtained": 2797,
"\u0120heart": 2798,
"load": 2799,
"\u0120six": 2800,
"\u0120weight": 2801,
"\u0120\u00e2\u0122\u013a": 2802,
"\u0120factor": 2803,
"ike": 2804,
"\u0120q": 2805,
"\u0120black": 2806,
"\")": 2807,
"log": 2808,
"Sh": 2809,
"\u0120close": 2810,
"where": 2811,
"\u0120spect": 2812,
"\u0120device": 2813,
"onal": 2814,
"lim": 2815,
"\u0120York": 2816,
"\u0120sus": 2817,
"\u0120affect": 2818,
"\u0120looking": 2819,
"\u0120trying": 2820,
"iding": 2821,
"\u0120near": 2822,
"comm": 2823,
"ips": 2824,
"\u0120sex": 2825,
"\u0120occur": 2826,
"\u0120er": 2827,
"\u0120Christ": 2828,
"\u0120table": 2829,
"\u0120sil": 2830,
"\u0120cross": 2831,
"\u0120htt": 2832,
"\u0120creat": 2833,
"\u0120difficult": 2834,
"itting": 2835,
"\u0120dig": 2836,
"\u0120demonstr": 2837,
"Val": 2838,
"\u0120rat": 2839,
"\u0120custom": 2840,
"Figure": 2841,
"ideo": 2842,
"aff": 2843,
"cing": 2844,
"rec": 2845,
"\u0120city": 2846,
"\u0120cause": 2847,
"anguage": 2848,
"\u0120magn": 2849,
"^\\": 2850,
"td": 2851,
"\u0120future": 2852,
"\u0120ill": 2853,
"\u0120drug": 2854,
"struct": 2855,
"\u0120dat": 2856,
"\u0120\u0120\u0120\u0120\u0120\u0120\u0120\u0120\u0120\u0120\u0120\u0120\u0120\u0120\u0120": 2857,
"but": 2858,
"rho": 2859,
"\u0120hom": 2860,
"Cont": 2861,
"\u0120entire": 2862,
"\u00ce\u00bf": 2863,
"\u0120decre": 2864,
"isc": 2865,
"\u00e2\u0122\u00a6": 2866,
"\u0120property": 2867,
"\u0120believe": 2868,
"\u00e0\u00b8": 2869,
"\u0120ste": 2870,
"\u00d0\u00b5\u00d0": 2871,
"\u0120young": 2872,
"\u0120mut": 2873,
"001": 2874,
"orld": 2875,
"\u0120string": 2876,
"value": 2877,
"ilt": 2878,
"\u0120added": 2879,
"iet": 2880,
"ply": 2881,
"\u0120consist": 2882,
"\u0120fav": 2883,
"\u0120Fl": 2884,
"\u0120parent": 2885,
"ii": 2886,
"see": 2887,
")*": 2888,
"\u0120nat": 2889,
"ties": 2890,
"\u0120tax": 2891,
"\u0120history": 2892,
"ternal": 2893,
"IM": 2894,
"\u0120econom": 2895,
"\u0120By": 2896,
"\u0120ang": 2897,
"\u0120application": 2898,
"\u0120integr": 2899,
"\u0120solution": 2900,
"\u0120trad": 2901,
"ama": 2902,
"\u0120Ass": 2903,
"08": 2904,
"\u0120related": 2905,
"Ar": 2906,
"ulated": 2907,
"\u0120included": 2908,
"\u0120minutes": 2909,
"ball": 2910,
"$-": 2911,
"------------": 2912,
"year": 2913,
"\u0120front": 2914,
"body": 2915,
"\u0120contr": 2916,
"////": 2917,
"\u0120held": 2918,
"\u0120region": 2919,
"fully": 2920,
"ros": 2921,
"07": 2922,
"\u0120cancer": 2923,
"rown": 2924,
"AB": 2925,
"\u0120story": 2926,
"\u0120eyes": 2927,
"\u0120answ": 2928,
"\u0120paper": 2929,
"etition": 2930,
"\u0120defined": 2931,
"\u0120Cent": 2932,
"\u0120AN": 2933,
"\u0120idea": 2934,
"resh": 2935,
"\u0120ur": 2936,
"itten": 2937,
"\u0120flu": 2938,
"\u0120assess": 2939,
"\u0120walk": 2940,
"03": 2941,
"chie": 2942,
"lying": 2943,
"\u0120decl": 2944,
"42": 2945,
"App": 2946,
"],[@": 2947,
"import": 2948,
"\u0120IN": 2949,
"46": 2950,
"\u0120Ste": 2951,
"\u0120season": 2952,
"\u0120address": 2953,
"\u0120relationship": 2954,
"hel": 2955,
"\u0120Par": 2956,
"\u0120loss": 2957,
"\u0120publ": 2958,
"\u0120received": 2959,
"ada": 2960,
"aged": 2961,
"\u0120series": 2962,
"\u0120po": 2963,
"\u00d1\u0125": 2964,
"\u0120fall": 2965,
"inn": 2966,
"rs": 2967,
"\u0120deal": 2968,
"\u0120simple": 2969,
"\u0120getting": 2970,
"ster": 2971,
"\u0120block": 2972,
"Col": 2973,
"html": 2974,
"\u0120respectively": 2975,
"andom": 2976,
"aging": 2977,
"\u0120length": 2978,
"ences": 2979,
"ening": 2980,
"xi": 2981,
"\u0120maint": 2982,
"\u0120attack": 2983,
"\u0120immun": 2984,
"\u0120miss": 2985,
"\u0120camp": 2986,
"\u0120works": 2987,
"uly": 2988,
"\u00ce\u00b9": 2989,
"\u0120network": 2990,
"\u0120void": 2991,
"*,": 2992,
"She": 2993,
"\u0120himself": 2994,
"oud": 2995,
"iting": 2996,
"\u0120accept": 2997,
"pecially": 2998,
"\u0120appl": 2999,
"\u0120words": 3000,
"\u0120=>": 3001,
"dro": 3002,
"\u0120THE": 3003,
"mitted": 3004,
"delta": 3005,
"izing": 3006,
"\u0120coll": 3007,
"iqu": 3008,
"ledge": 3009,
"\u0120More": 3010,
"57": 3011,
"\u0120significantly": 3012,
"ises": 3013,
"pose": 3014,
"\u0120\u00c2\u00a7": 3015,
"US": 3016,
"ols": 3017,
"plement": 3018,
"\u0120$(": 3019,
"wise": 3020,
"\u0120thus": 3021,
"like": 3022,
"nu": 3023,
"net": 3024,
"verse": 3025,
"bed": 3026,
"IR": 3027,
"tic": 3028,
"\u0120defin": 3029,
"ems": 3030,
"199": 3031,
"\u0120His": 3032,
"\u0120bound": 3033,
"\u0120tum": 3034,
"\u0120En": 3035,
"\u0120fig": 3036,
"\u0120learn": 3037,
"\u0120hours": 3038,
"When": 3039,
"leq": 3040,
"\u0120million": 3041,
"isf": 3042,
"../": 3043,
"\u0120Mc": 3044,
"\u0120performance": 3045,
"59": 3046,
"\u0120saw": 3047,
"\u0120link": 3048,
"selves": 3049,
"\u0120Med": 3050,
"obal": 3051,
"\u0120Am": 3052,
"\u0120started": 3053,
"\u0120states": 3054,
"\u0120private": 3055,
"oms": 3056,
"\u0120contact": 3057,
"\u0120needed": 3058,
"\u0120\u0120\u0120\u0120\u0120\u0120\u0120\u0120\u0120\u0120\u0120\u0120": 3059,
"\u0120Europe": 3060,
"\u0120decision": 3061,
"more": 3062,
"\u0120today": 3063,
"\u0120difference": 3064,
"ferences": 3065,
"\u0120via": 3066,
"\u0120adj": 3067,
"umn": 3068,
"\u00c2\u00b1": 3069,
"gree": 3070,
"06": 3071,
"\u0120population": 3072,
"></": 3073,
"All": 3074,
"\u0120pain": 3075,
"\u0120bad": 3076,
"IL": 3077,
"\u0120wanted": 3078,
"43": 3079,
"}}\\": 3080,
"\u0120additional": 3081,
"\u0120methods": 3082,
"\u0120Man": 3083,
"\u0120inhib": 3084,
"\u0120film": 3085,
"anced": 3086,
"inding": 3087,
"do": 3088,
"\u0120chall": 3089,
"\u00c3\u00bc": 3090,
"\u0120shall": 3091,
"\u0120introdu": 3092,
"ili": 3093,
"\u0120Cor": 3094,
"\u0120someone": 3095,
"\u0120Ge": 3096,
"uth": 3097,
"\u0120eff": 3098,
"miss": 3099,
"ocal": 3100,
"\u0120mother": 3101,
"\u0120pattern": 3102,
"\u0120therefore": 3103,
"\u0120lines": 3104,
"\u0120Not": 3105,
"inks": 3106,
"anks": 3107,
"\u0120influ": 3108,
"ender": 3109,
"\u0120patient": 3110,
"overed": 3111,
"\u0120assum": 3112,
"with": 3113,
"\u0120community": 3114,
"tau": 3115,
"\u0120growth": 3116,
")}": 3117,
"comp": 3118,
"istance": 3119,
"\u0120card": 3120,
"76": 3121,
"/*": 3122,
"IP": 3123,
"theta": 3124,
"TR": 3125,
"\u0120environment": 3126,
"\u012021": 3127,
"\u0120party": 3128,
"gl": 3129,
"\u0120Pol": 3130,
"ocr": 3131,
"\u0120indu": 3132,
"\u0120seems": 3133,
"ensive": 3134,
"\u0120begin": 3135,
"oke": 3136,
"\u0120compl": 3137,
"![": 3138,
"\u0120itself": 3139,
"file": 3140,
"78": 3141,
"\u00d8\u00a7": 3142,
"\u0120achie": 3143,
"atus": 3144,
"View": 3145,
"atively": 3146,
"\u00ce\u00bd": 3147,
"\u0120display": 3148,
"oved": 3149,
"\u0120die": 3150,
"omega": 3151,
"Wh": 3152,
"\u0120live": 3153,
"\u0120dest": 3154,
"ych": 3155,
"41": 3156,
"\u0120improve": 3157,
"\u0120quick": 3158,
"\u0120word": 3159,
"reet": 3160,
"gress": 3161,
"\u0120Act": 3162,
"amed": 3163,
"\u0120probably": 3164,
"atal": 3165,
"\u0120Do": 3166,
"\u0120host": 3167,
"\u0120white": 3168,
"based": 3169,
"yp": 3170,
"ills": 3171,
"EM": 3172,
"\u0120Im": 3173,
"\u0120foot": 3174,
"PR": 3175,
"\u0120appear": 3176,
"\u0120attempt": 3177,
"arc": 3178,
"vant": 3179,
"odes": 3180,
"times": 3181,
"define": 3182,
"\u0120recogn": 3183,
"ying": 3184,
"\u0120instead": 3185,
"\u0120search": 3186,
"\u0120fund": 3187,
"come": 3188,
"\u0120Me": 3189,
"ynam": 3190,
"ilities": 3191,
"\u0120taking": 3192,
"\u00ef\u00bc": 3193,
"eks": 3194,
"\u0120reve": 3195,
"\u0120Dr": 3196,
"used": 3197,
"\u0120needs": 3198,
"\u0120pan": 3199,
"\u0120motion": 3200,
"urch": 3201,
"\u0120\\\\": 3202,
"\u0120\u0120\u0120\u0120\u0120\u0120\u0120\u0120\u0120\u0120\u0120\u0120\u0120": 3203,
"unch": 3204,
"iles": 3205,
"\u0120involved": 3206,
"CL": 3207,
"56": 3208,
"iddle": 3209,
"\u0120models": 3210,
"code": 3211,
"\u0120behind": 3212,
"\u0120step": 3213,
"partial": 3214,
"\u0120pret": 3215,
"\u0120ground": 3216,
"comes": 3217,
"\u00e4\u00b8": 3218,
"gest": 3219,
"My": 3220,
"\u0120false": 3221,
"uments": 3222,
"stant": 3223,
"ederal": 3224,
"pri": 3225,
"\u0120girl": 3226,
"ha": 3227,
"\u0120City": 3228,
"des": 3229,
"ana": 3230,
"OC": 3231,
"\u0120administ": 3232,
"Data": 3233,
"________": 3234,
"Table": 3235,
"\u0120original": 3236,
"\u0120problems": 3237,
"\u0120services": 3238,
"\u0120page": 3239,
"\u0120quite": 3240,
"ste": 3241,
"\u0120exact": 3242,
"light": 3243,
"\u0120exec": 3244,
"83": 3245,
"PE": 3246,
"olve": 3247,
"ese": 3248,
"\u0120comes": 3249,
"\u00e2\u0122\u0132": 3250,
"Se": 3251,
"IV": 3252,
"\u0120everything": 3253,
"ites": 3254,
"...\"": 3255,
"aled": 3256,
"\u0120defendant": 3257,
"astic": 3258,
"infty": 3259,
"\u0120knew": 3260,
"\u0120looked": 3261,
"\u0120Gu": 3262,
"\u010a\u0120\u0120\u0120\u0120\u0120\u0120\u0120\u0120\u0120\u0120\u0120\u0120\u0120\u0120\u0120\u0120\u0120\u0120\u0120\u0120\u0120\u0120\u0120\u0120\u0120\u0120\u0120\u0120\u0120\u0120\u0120\u0120": 3263,
"\u0120expected": 3264,
"\u0120ess": 3265,
"xim": 3266,
"\u0120Cont": 3267,
"\u0120distribution": 3268,
"FF": 3269,
"\u0120anti": 3270,
"OL": 3271,
"\u00c2\u00b0": 3272,
"\u0120vo": 3273,
"ecause": 3274,
"\u0120production": 3275,
"\u0120temperature": 3276,
"\u0120Qu": 3277,
"icense": 3278,
"\u0120\u00c2\u00b1": 3279,
"\u0120input": 3280,
"size": 3281,
"\u0120sense": 3282,
"\u0120predict": 3283,
"\u0120element": 3284,
"\u012029": 3285,
"\u0120district": 3286,
"\");": 3287,
"oo": 3288,
"\u0120fire": 3289,
"\u0120quality": 3290,
"])": 3291,
"aving": 3292,
"\u0120les": 3293,
"\u0120compar": 3294,
"\u0120color": 3295,
"hem": 3296,
"\u0120stay": 3297,
"arr": 3298,
"PS": 3299,
"\u0120sem": 3300,
"\u0120load": 3301,
"\u0120initial": 3302,
"}$,": 3303,
"\u0120inside": 3304,
"book": 3305,
"document": 3306,
"\u012022": 3307,
"\u0120Thus": 3308,
"\u0120necessary": 3309,
"\u0120contract": 3310,
"\u0120estim": 3311,
"\u00c3\u00a3": 3312,
"\u0120National": 3313,
"\u00c3\u00a7": 3314,
"\u0120Dep": 3315,
"\u0120indust": 3316,
"\u0120dim": 3317,
"\u0120$$": 3318,
"sk": 3319,
"\u0120gene": 3320,
"position": 3321,
"UR": 3322,
"\u0120Germ": 3323,
"\u0120bring": 3324,
"\u0120nucle": 3325,
"rote": 3326,
"\u0120Pres": 3327,
"eration": 3328,
"UT": 3329,
"\u0120win": 3330,
"\u0120friend": 3331,
"\u0120recent": 3332,
"._": 3333,
"\u0120install": 3334,
"dom": 3335,
"\u0120educ": 3336,
"ribute": 3337,
"MS": 3338,
"ulations": 3339,
"\u0120especially": 3340,
"inally": 3341,
"bf": 3342,
"\u0120wait": 3343,
"\u0120Jan": 3344,
"\u0120outside": 3345,
"\u0120...": 3346,
"\u0120son": 3347,
"ae": 3348,
"\u012028": 3349,
"\u0120bir": 3350,
"Im": 3351,
"\u0120proced": 3352,
"\\\\": 3353,
"den": 3354,
"ades": 3355,
"\u0120longer": 3356,
"53": 3357,
"ram": 3358,
"\u0120implement": 3359,
"utions": 3360,
"\u0120presence": 3361,
"quad": 3362,
"}$.": 3363,
"box": 3364,
"\u0120simply": 3365,
"\u0120Def": 3366,
"\u0120personal": 3367,
"\u0120experiment": 3368,
"\u0120door": 3369,
"illi": 3370,
"\u0120jo": 3371,
"lig": 3372,
"rc": 3373,
"\u0120issues": 3374,
"\u0120tiss": 3375,
"\u0120pie": 3376,
"ado": 3377,
"With": 3378,
"\u0120print": 3379,
"\u0120\u0120\u0120\u0120\u0120\u0120\u0120\u0120\u0120\u0120\u0120\u0120\u0120\u0120": 3380,
"bre": 3381,
"\u0120clinical": 3382,
"\u0120(-": 3383,
"\u0120\u00e2": 3384,
"rav": 3385,
"\u0120features": 3386,
"\u012040": 3387,
"\u0120average": 3388,
"\u0120document": 3389,
"ging": 3390,
"vious": 3391,
"\u0120father": 3392,
"\u00ce\u00b5": 3393,
"\u0120events": 3394,
"\u0120became": 3395,
"itude": 3396,
"istics": 3397,
"hers": 3398,
"bor": 3399,
"\u0120provides": 3400,
"')": 3401,
"\u0120wall": 3402,
"\u0120capt": 3403,
"At": 3404,
"\u0120stra": 3405,
"rapy": 3406,
"\u0120began": 3407,
"\u0120phase": 3408,
"state": 3409,
"\u0120sample": 3410,
"\u0120correl": 3411,
"bject": 3412,
"\u0120determined": 3413,
"\u0120sett": 3414,
"\u00d0\u00bb": 3415,
"\u0120woman": 3416,
"\u0120species": 3417,
"word": 3418,
"\u0120Ag": 3419,
"\u0120media": 3420,
"ccording": 3421,
"olic": 3422,
"field": 3423,
"++": 3424,
"\u0120sequence": 3425,
"\u0120complete": 3426,
"\u0120fem": 3427,
"rim": 3428,
"width": 3429,
"\u0120wrong": 3430,
"dis": 3431,
"\u0120surv": 3432,
"sl": 3433,
"\u0120effort": 3434,
"\u012027": 3435,
"\u012026": 3436,
"\u0120CD": 3437,
"\u0120former": 3438,
"54": 3439,
"\u0120music": 3440,
"arily": 3441,
"Delta": 3442,
"\u0120du": 3443,
"clusion": 3444,
"ymb": 3445,
"\".": 3446,
"refore": 3447,
"\u0120language": 3448,
"\u0120satisf": 3449,
"osition": 3450,
"\u0120correct": 3451,
"\u0120Bo": 3452,
"\u0120output": 3453,
"mary": 3454,
"]{},": 3455,
"pre": 3456,
"\u0120diagn": 3457,
"\\*": 3458,
"cription": 3459,
"raction": 3460,
"\u0120communic": 3461,
"ronic": 3462,
"By": 3463,
"\u0120remain": 3464,
"aves": 3465,
"dered": 3466,
"su": 3467,
"\u0120slow": 3468,
"\u0120depend": 3469,
"\u0120functions": 3470,
"\u0120ge": 3471,
"uous": 3472,
"\u0120pressure": 3473,
"const": 3474,
"\u0120ox": 3475,
"\u0120/*": 3476,
"\u0120easy": 3477,
"\u0120mole": 3478,
"RNA": 3479,
"\u0120lack": 3480,
"\u0120OF": 3481,
"\u0120plaintiff": 3482,
"\u0120strateg": 3483,
"\u0120students": 3484,
"elling": 3485,
"\u0120impact": 3486,
"down": 3487,
"\u0120poly": 3488,
"ENT": 3489,
"\u0120force": 3490,
"\u0120copy": 3491,
"\u0120video": 3492,
"Pl": 3493,
"ospital": 3494,
"\u012023": 3495,
"\u0120ir": 3496,
"\u0120window": 3497,
"px": 3498,
"\u0120hor": 3499,
"\u0120hyp": 3500,
"\u0120cry": 3501,
"olds": 3502,
"^*": 3503,
"\u00d1\u0131": 3504,
"\u0120princ": 3505,
"\u0120Ab": 3506,
"82": 3507,
"oon": 3508,
"\u0120prec": 3509,
"\u0120types": 3510,
"\u0120hot": 3511,
"\u0120Part": 3512,
"\u0120police": 3513,
"airs": 3514,
"\u0120running": 3515,
"itary": 3516,
"\u0120soon": 3517,
"actions": 3518,
"OD": 3519,
"\u0120physical": 3520,
"\u0120stri": 3521,
"\u0120date": 3522,
"\u0120stop": 3523,
"\u0120hope": 3524,
"era": 3525,
"idge": 3526,
"\u0120acid": 3527,
"SS": 3528,
"that": 3529,
"\u0120samples": 3530,
"\u0120turned": 3531,
"\u0120Ne": 3532,
"\u0120questions": 3533,
"\u0120gave": 3534,
"itation": 3535,
"annel": 3536,
"\u0120analy": 3537,
"\u0120deriv": 3538,
"\u00c3\u00a8": 3539,
"\u0120track": 3540,
"\u0120memory": 3541,
"\u0120written": 3542,
"\u0120felt": 3543,
"ags": 3544,
"\u0120Per": 3545,
"En": 3546,
"72": 3547,
"\u0120isn": 3548,
"sim": 3549,
"list": 3550,
"\u0120coming": 3551,
"\u0120cred": 3552,
"\u0120leave": 3553,
"\u0120chem": 3554,
"\u0120Rev": 3555,
"haps": 3556,
"icon": 3557,
"\u0120member": 3558,
"\u0120presented": 3559,
"\u0120followed": 3560,
"umb": 3561,
"\u0120created": 3562,
"\u0120late": 3563,
"\u0120hands": 3564,
"\u0120official": 3565,
"74": 3566,
"ributed": 3567,
"\u010d\u010a\u0120\u0120\u0120": 3568,
"\u0120political": 3569,
"\u0120rights": 3570,
"63": 3571,
"\u0120},": 3572,
"\u0120heav": 3573,
"\u0120sle": 3574,
"param": 3575,
"\u0120effective": 3576,
"|\\": 3577,
"\u0120ten": 3578,
"\u0120forward": 3579,
"\u0120products": 3580,
"ogle": 3581,
"tilde": 3582,
"52": 3583,
"\u0120pack": 3584,
"\u0120rev": 3585,
"\u0120Pe": 3586,
"\u0120directly": 3587,
"\u0120valid": 3588,
"\u0120wasn": 3589,
"\u0120sound": 3590,
"cm": 3591,
"ett": 3592,
"81": 3593,
"Gr": 3594,
"\u0120evalu": 3595,
"\u0120config": 3596,
"\u0120tried": 3597,
"\u0120constit": 3598,
"\u0120El": 3599,
"\u0120bur": 3600,
"\u0120screen": 3601,
"\u0120parameters": 3602,
"\u0120elements": 3603,
"ega": 3604,
"\u0120index": 3605,
"tered": 3606,
"\u0120properties": 3607,
"\u0120genes": 3608,
"\u0120select": 3609,
"sm": 3610,
"ague": 3611,
"ken": 3612,
"\u0120!=": 3613,
"https": 3614,
"char": 3615,
"\u0120Brit": 3616,
"\u0120Go": 3617,
"\u0120weeks": 3618,
"\u0120Ed": 3619,
"dev": 3620,
"lease": 3621,
"\u0120ago": 3622,
"lier": 3623,
"rief": 3624,
"\u0120primary": 3625,
"\u0120natural": 3626,
"ula": 3627,
"ults": 3628,
"\u0120increasing": 3629,
"\u0120write": 3630,
"\u0120Comp": 3631,
"\u0120random": 3632,
"Get": 3633,
"\u0120context": 3634,
"\u0120null": 3635,
"\u0120identified": 3636,
"\u0120follows": 3637,
"\u0120constant": 3638,
"hood": 3639,
"\u0120knowledge": 3640,
"\u0120mi": 3641,
"lin": 3642,
"\u0120Pa": 3643,
"\u0120dark": 3644,
"\u0120World": 3645,
"\u0120policy": 3646,
"ishing": 3647,
"\u0120accom": 3648,
"acc": 3649,
"Not": 3650,
"\u0120consum": 3651,
"\u0120building": 3652,
"\u0120determine": 3653,
"\u0120alleg": 3654,
"73": 3655,
"\u0120Dist": 3656,
"\u0120prevent": 3657,
"ements": 3658,
"point": 3659,
"\u0120War": 3660,
"\u0120controll": 3661,
"\u0120answer": 3662,
"\u0120lost": 3663,
"\";": 3664,
"\u0120frame": 3665,
"\u0120Des": 3666,
"\u0120Reg": 3667,
"\u0120news": 3668,
"iber": 3669,
"\u0120immedi": 3670,
"fs": 3671,
"\u0120areas": 3672,
"\u0120bott": 3673,
"\u0120mach": 3674,
"trans": 3675,
"\u0120deep": 3676,
"71": 3677,
"\u0120gas": 3678,
"clus": 3679,
"58": 3680,
"amm": 3681,
"apan": 3682,
"ils": 3683,
"\u0120South": 3684,
"\u00c3\u00a3o": 3685,
"\u0120sort": 3686,
"\u0120greater": 3687,
"\u0120invention": 3688,
"\u0120Min": 3689,
"\u0120Inc": 3690,
"oma": 3691,
"\u0120whose": 3692,
"\u0120avoid": 3693,
"\u0120software": 3694,
"lementary": 3695,
"kn": 3696,
"\u0120Sch": 3697,
"\u0120watch": 3698,
"culate": 3699,
"\u0120transfer": 3700,
"function": 3701,
"uary": 3702,
"oe": 3703,
"****************": 3704,
"\u0120pict": 3705,
"\u0120;": 3706,
"\u0120except": 3707,
"\u0120status": 3708,
"include": 3709,
"\u0120limited": 3710,
"\u0120map": 3711,
"51": 3712,
"}(\\": 3713,
"\u0120ps": 3714,
"\u0120developed": 3715,
"fection": 3716,
"CD": 3717,
"\u0120favor": 3718,
"\u0120II": 3719,
"\u0120basis": 3720,
"\u00d0\u00ba": 3721,
"\u0120bed": 3722,
"\u0120Af": 3723,
"Ps": 3724,
"]^": 3725,
"They": 3726,
"\u0120release": 3727,
"array": 3728,
"\u0120North": 3729,
"\u0120refer": 3730,
"\u0120mis": 3731,
"\u0120applied": 3732,
"\u0120training": 3733,
"\u0120Russ": 3734,
"\u0120heard": 3735,
"\u0120?": 3736,
"ica": 3737,
"\u0120although": 3738,
"\u0120medical": 3739,
"\u0120style": 3740,
"icles": 3741,
"lish": 3742,
"asons": 3743,
"\u0120ful": 3744,
"\u0120ability": 3745,
"\u0120themselves": 3746,
"\u0120Aug": 3747,
"\u0120mention": 3748,
"\u0120Intern": 3749,
"ius": 3750,
"anger": 3751,
"\u0120Aust": 3752,
"\u0120nature": 3753,
"\u0120mice": 3754,
"reng": 3755,
"ography": 3756,
"gn": 3757,
"apter": 3758,
"\u0120Sim": 3759,
"rial": 3760,
"\u0120match": 3761,
"\u0120theory": 3762,
"62": 3763,
"vere": 3764,
"\u0120prep": 3765,
"hern": 3766,
"men": 3767,
"\u0120aw": 3768,
"\u0120secur": 3769,
"och": 3770,
"\u0120Just": 3771,
"\u0120autom": 3772,
"\u0120players": 3773,
"\u0120Sm": 3774,
"error": 3775,
"\u0120\u00d0\u00bf": 3776,
"\u0120reduced": 3777,
"\u0120Trump": 3778,
"\u0120sal": 3779,
"\u0120anyone": 3780,
"\u0120array": 3781,
"\u0120particularly": 3782,
"ios": 3783,
"pite": 3784,
"\u0120pull": 3785,
"\u0120previously": 3786,
"rupt": 3787,
"MA": 3788,
"plate": 3789,
"\u0120round": 3790,
"\u0120opportun": 3791,
"lege": 3792,
"\u0120veh": 3793,
"\u0120respond": 3794,
"\u0120compan": 3795,
"erson": 3796,
"\u0120includes": 3797,
"\u0120usually": 3798,
"rangle": 3799,
"ager": 3800,
"IF": 3801,
"\u0120sn": 3802,
"pper": 3803,
"fra": 3804,
"\u0120grad": 3805,
"\u0120reference": 3806,
"\u0120und": 3807,
"\u0120Some": 3808,
"\u0120fast": 3809,
"Err": 3810,
"\u0120living": 3811,
"\u0120draw": 3812,
"\u0120Therefore": 3813,
"uel": 3814,
"\u0120alone": 3815,
"\u0120ren": 3816,
"\u0120box": 3817,
"\u0120recomm": 3818,
"\u0120fight": 3819,
"\u0120aud": 3820,
"\u0120Oct": 3821,
")$.": 3822,
"ivil": 3823,
"\u0120Our": 3824,
"iments": 3825,
"\u0120Dav": 3826,
"ellow": 3827,
"\u0120layer": 3828,
"\u0120webs": 3829,
"cdot": 3830,
"\u0120contain": 3831,
"61": 3832,
"lor": 3833,
"ashing": 3834,
"\u0120cover": 3835,
"isions": 3836,
"Ad": 3837,
"roph": 3838,
"\u0120generally": 3839,
"\u0120Further": 3840,
"oles": 3841,
"\u0120repe": 3842,
"\u0120:=": 3843,
"aches": 3844,
"print": 3845,
"\u0120dead": 3846,
"zy": 3847,
"De": 3848,
"earch": 3849,
"fered": 3850,
"\\])": 3851,
"rite": 3852,
"*~": 3853,
"\u0120Suppose": 3854,
"igen": 3855,
"\u0120Here": 3856,
"\u0120&&": 3857,
"\u0120friends": 3858,
"PL": 3859,
"\u0120href": 3860,
"\u0120prot": 3861,
"\u0120broad": 3862,
"\u0120published": 3863,
"Qu": 3864,
"\u0120anim": 3865,
"script": 3866,
"illing": 3867,
"\u00cf\u0125": 3868,
"orks": 3869,
"iven": 3870,
"SD": 3871,
"\u0120national": 3872,
"pril": 3873,
"\u0120town": 3874,
"otic": 3875,
"\u00c3\u00b3n": 3876,
"\u0120note": 3877,
"pen": 3878,
"\u0120behavior": 3879,
"\u0120driv": 3880,
"joy": 3881,
"\u0120DNA": 3882,
"\u0120judgment": 3883,
"\u0120direction": 3884,
"\u0120speed": 3885,
"TH": 3886,
"EL": 3887,
"\u0120images": 3888,
"\u0120van": 3889,
"\u0120express": 3890,
"\u0120(\\[": 3891,
"gor": 3892,
"\u010a\u0120\u0120\u0120\u0120\u0120\u0120": 3893,
"\u0120share": 3894,
"osph": 3895,
"\u0120squ": 3896,
"\u0120los": 3897,
"\u0120impl": 3898,
"met": 3899,
"\u0120While": 3900,
"inated": 3901,
"Value": 3902,
"anch": 3903,
"\u0120numbers": 3904,
"\u0120La": 3905,
"\u0120office": 3906,
"\u0120independent": 3907,
"\u0120statement": 3908,
"\u0120online": 3909,
"\u0120differences": 3910,
"\u0120opin": 3911,
"\u0120tou": 3912,
"acement": 3913,
"($": 3914,
"\u0120ST": 3915,
"\u0120claims": 3916,
"\u00e3\u0123\u00ae": 3917,
"\u0120President": 3918,
"\u0120March": 3919,
"augh": 3920,
"\u0120[*": 3921,
"urg": 3922,
"\u0120command": 3923,
"\u0120stage": 3924,
"\u012060": 3925,
"\u0120dro": 3926,
"aries": 3927,
"\u0120County": 3928,
"\u0120article": 3929,
"\u00e2\u0122\u0125": 3930,
"isms": 3931,
"\u0120Since": 3932,
"\u0120accur": 3933,
"osure": 3934,
"\u0120message": 3935,
"\u0120takes": 3936,
"mega": 3937,
"unk": 3938,
"\u0120active": 3939,
"\u0120cand": 3940,
"oul": 3941,
"vey": 3942,
"\u0120unit": 3943,
"\u0120http": 3944,
"term": 3945,
"\u0120practice": 3946,
"\u0120compet": 3947,
"\u0120engine": 3948,
"\u0120vict": 3949,
"ental": 3950,
"^[@": 3951,
"\u00cf\u0123": 3952,
"94": 3953,
"\u0120Now": 3954,
"\u00ce\u00bc": 3955,
"top": 3956,
"hest": 3957,
"\u0120games": 3958,
"\u0120offer": 3959,
"\u0120altern": 3960,
"\u0120band": 3961,
"\u0120perfect": 3962,
"\u0120regular": 3963,
"ham": 3964,
"\u0120pretty": 3965,
"\u0120etc": 3966,
"path": 3967,
"\u0120America": 3968,
"\u0120corresponding": 3969,
"\u0120dynam": 3970,
"\u0120road": 3971,
"\u0120Har": 3972,
"\u0120First": 3973,
"\u0120\u00c3\u00a9": 3974,
"\u0120Art": 3975,
"\u0120Char": 3976,
"\u0120led": 3977,
"\u0120June": 3978,
"BC": 3979,
"Or": 3980,
"\u0120saying": 3981,
"\u0120brought": 3982,
"eah": 3983,
"\u0120speak": 3984,
"length": 3985,
"\u0120reach": 3986,
"ming": 3987,
"\u0120security": 3988,
"\u0120construct": 3989,
"\u0120\u010a\u0120\u0120\u0120\u0120\u0120\u0120\u0120\u0120\u0120\u0120\u0120\u0120\u0120\u0120\u0120": 3990,
"\u0120appropri": 3991,
"cell": 3992,
"atives": 3993,
"\u0120ens": 3994,
"\u0120House": 3995,
"Ed": 3996,
"\u0120feed": 3997,
"\u0120brain": 3998,
"deed": 3999,
"\u0120rot": 4000,
"undred": 4001,
"ille": 4002,
"erve": 4003,
"lation": 4004,
"\u0120Sept": 4005,
"bon": 4006,
"\u0120president": 4007,
"cast": 4008,
"\u0120Val": 4009,
")=": 4010,
"ran": 4011,
"atform": 4012,
"Oh": 4013,
"\u0120tele": 4014,
"Le": 4015,
"\u0120negative": 4016,
"\u0120protect": 4017,
"}}$": 4018,
"za": 4019,
"\u0120approxim": 4020,
"\u0120double": 4021,
"\u01202016": 4022,
"\u0120ball": 4023,
"inate": 4024,
"pret": 4025,
"arning": 4026,
"));": 4027,
"\u0120writing": 4028,
"pan": 4029,
"\u0120fine": 4030,
"\u0120Id": 4031,
"supp": 4032,
"\u0120Bar": 4033,
"omen": 4034,
"\u0120continue": 4035,
"\u0120ord": 4036,
"UN": 4037,
"\u0120density": 4038,
"cho": 4039,
"ethyl": 4040,
"One": 4041,
"\u0120antib": 4042,
"ournal": 4043,
"\u0120obtain": 4044,
"Do": 4045,
"attle": 4046,
"\u0120Japan": 4047,
"orph": 4048,
"\u0120cam": 4049,
"\u01202012": 4050,
"\u0120Gl": 4051,
"aling": 4052,
"vention": 4053,
"\u0120ult": 4054,
"\u0120center": 4055,
"\u0120streng": 4056,
"\u0120\u00c3\u0142": 4057,
"\u0120Her": 4058,
"\u01202014": 4059,
"\u0120title": 4060,
"SC": 4061,
"\u0120tradition": 4062,
"urb": 4063,
"from": 4064,
"call": 4065,
"pat": 4066,
"\u0120larger": 4067,
"ibrary": 4068,
"itter": 4069,
"\u0120hon": 4070,
"ayer": 4071,
"\u01202013": 4072,
"\u0120stress": 4073,
"ufact": 4074,
"\u0120enh": 4075,
"\u0120clean": 4076,
"\u0120arr": 4077,
"ociety": 4078,
"uge": 4079,
"\u0120measured": 4080,
"\u0120proposed": 4081,
"\u0120Cir": 4082,
"\u0120financ": 4083,
"uild": 4084,
"eful": 4085,
"\u0120rule": 4086,
"ously": 4087,
"\u0120ways": 4088,
"\u0120hear": 4089,
"max": 4090,
"yond": 4091,
"\u0120serious": 4092,
"sing": 4093,
"estern": 4094,
"\u0120devices": 4095,
"\u0120purpose": 4096,
"\u0120AP": 4097,
"\u0120grant": 4098,
"rench": 4099,
"gorith": 4100,
"\u0120hydro": 4101,
"\u0120recently": 4102,
"\u0120relative": 4103,
"\u01202015": 4104,
"\u0120poor": 4105,
"efore": 4106,
"\u0120fre": 4107,
"enty": 4108,
"\u0120ter": 4109,
"\u0120IS": 4110,
"\u0120Phys": 4111,
"\u0120situation": 4112,
"ui": 4113,
"\u0120background": 4114,
"eline": 4115,
"\u0120attention": 4116,
",'": 4117,
"###": 4118,
"\u010a\u0120\u0120\u0120\u0120\u0120\u0120\u0120\u0120\u0120\u0120\u0120\u0120\u0120\u0120\u0120\u0120\u0120\u0120\u0120\u0120\u0120\u0120\u0120": 4119,
"Mod": 4120,
"ocks": 4121,
"\u0120highly": 4122,
"la": 4123,
"ports": 4124,
"Now": 4125,
"aign": 4126,
"\u0120treated": 4127,
"irect": 4128,
"\u0120Although": 4129,
"\u0120everyone": 4130,
"\u0120morning": 4131,
"ML": 4132,
"\u0120liter": 4133,
"\u00cf\u0122": 4134,
"\u0120China": 4135,
"\u0120allowed": 4136,
"\u0120Su": 4137,
"\u0120assert": 4138,
"ervice": 4139,
"Suppose": 4140,
"\u00d1\u012d": 4141,
"\u0120rates": 4142,
"\u0120visit": 4143,
"psi": 4144,
"\u0120OR": 4145,
"\u0120Sun": 4146,
"\u0120purch": 4147,
"97": 4148,
"version": 4149,
"\u0120\u00e2\u012a\u0134": 4150,
"\u0120inform": 4151,
"band": 4152,
"Omega": 4153,
"\u0120argument": 4154,
"\u0120System": 4155,
"\u0120global": 4156,
"spec": 4157,
"\u0120designed": 4158,
"\u0120wrote": 4159,
"non": 4160,
"GF": 4161,
"\u0120April": 4162,
"\u0120July": 4163,
"\u0120il": 4164,
"\u0120Ser": 4165,
"\u0120oil": 4166,
"ellant": 4167,
"change": 4168,
"\u00d1\u012e": 4169,
"aily": 4170,
"\u0120acqu": 4171,
"\u0120ri": 4172,
"ico": 4173,
"fn": 4174,
"mar": 4175,
"\u0120suit": 4176,
"\u0120star": 4177,
"\u0120resid": 4178,
"\u0120charge": 4179,
"\u0120profess": 4180,
"\u0120distance": 4181,
"omy": 4182,
"\u00d0\u00b2": 4183,
"\u0120intern": 4184,
"98": 4185,
"\u0120isol": 4186,
"ulate": 4187,
"\u0120phen": 4188,
"\u0120\u00d1\u0123": 4189,
"reme": 4190,
"\u0120beaut": 4191,
"\u0120capac": 4192,
"bi": 4193,
"\u0120row": 4194,
"\u0120fa": 4195,
"96": 4196,
"\u0120produced": 4197,
"\u0120prop": 4198,
"ondon": 4199,
"\u0120Mon": 4200,
"\u0120birth": 4201,
"coming": 4202,
"}=": 4203,
"\u0120da": 4204,
"\u0120mount": 4205,
"iled": 4206,
"\\].": 4207,
"itness": 4208,
"\u0120sufficient": 4209,
"hors": 4210,
"\u0120sold": 4211,
"\u0120users": 4212,
"lo": 4213,
"\u0120General": 4214,
"iated": 4215,
"\u0120graph": 4216,
"\u0120useful": 4217,
"Cal": 4218,
"izes": 4219,
"Gamma": 4220,
"Par": 4221,
"\u0120arch": 4222,
"\u0120August": 4223,
"mpt": 4224,
"oted": 4225,
"00000000": 4226,
"\u0120instance": 4227,
"\u0120static": 4228,
"\u0120fixed": 4229,
"\u0120har": 4230,
"\u0120mag": 4231,
"\u0120established": 4232,
"gy": 4233,
"acing": 4234,
"\u0120Sw": 4235,
"\u0120selected": 4236,
"EX": 4237,
"was": 4238,
"pid": 4239,
"\u01202017": 4240,
"Object": 4241,
"\u0120failed": 4242,
"\u0120parts": 4243,
")$,": 4244,
"\u0120gives": 4245,
"cember": 4246,
"\u0120January": 4247,
"\u0120degree": 4248,
"ership": 4249,
"\u0120heat": 4250,
"map": 4251,
"obile": 4252,
"){#": 4253,
"\u0120operation": 4254,
"\u0120West": 4255,
"\u010d\u010a\u0120": 4256,
"New": 4257,
"\u0120somet": 4258,
"epsilon": 4259,
"\u0120mid": 4260,
"iring": 4261,
"\u0120proceed": 4262,
"oring": 4263,
"\u0120enjoy": 4264,
"\u00c4\u0125": 4265,
"\u0120myself": 4266,
"\u01202010": 4267,
"\u0120Jud": 4268,
"\u0120caused": 4269,
"\u0120built": 4270,
"\u0120identify": 4271,
"\u0120divided": 4272,
"\u0120bal": 4273,
"\u0120deb": 4274,
"\u0120central": 4275,
"\u0120Ap": 4276,
"psilon": 4277,
"\u0120details": 4278,
"\u0120secret": 4279,
"CA": 4280,
"\u0120Dem": 4281,
"\u0120wonder": 4282,
"\u0120leading": 4283,
"\u0120default": 4284,
"\u0120mer": 4285,
"abase": 4286,
"rightarrow": 4287,
"\u0120travel": 4288,
"\u0120hundred": 4289,
"OW": 4290,
"inct": 4291,
"\u0120individuals": 4292,
"\u0120imm": 4293,
"\u0120frequency": 4294,
"\u0120components": 4295,
"\u0120surpr": 4296,
"gu": 4297,
"\u0120experien": 4298,
"\u0120[**": 4299,
"\u0120announ": 4300,
"ovember": 4301,
"\u0120technology": 4302,
"entially": 4303,
"known": 4304,
"js": 4305,
"ancy": 4306,
"\u0120worked": 4307,
"\u0120stim": 4308,
"\u0120derivative": 4309,
"\u0120bank": 4310,
"\u0120scale": 4311,
"Text": 4312,
"\u0120ratio": 4313,
"\u0120eight": 4314,
"\u0120matrix": 4315,
"Sc": 4316,
"ees": 4317,
"\u0120voice": 4318,
"argin": 4319,
"\u0120legal": 4320,
"\u0120earlier": 4321,
"\u0120threat": 4322,
"\u0120management": 4323,
"\u0120proteins": 4324,
"\u0120From": 4325,
"\u0120substant": 4326,
"\u0120choice": 4327,
"\u0120location": 4328,
"\u0120lat": 4329,
"ener": 4330,
"\u0120pen": 4331,
"\u01202011": 4332,
"\u0120\u0120\u0120\u0120\u0120\u0120\u0120\u0120\u0120\u0120\u0120\u0120\u0120\u0120\u0120\u0120\u0120\u0120\u0120": 4333,
"vare": 4334,
"\u0120prime": 4335,
"\u0120completely": 4336,
"zed": 4337,
"ube": 4338,
"CE": 4339,
"\u00e3\u0122\u0124": 4340,
"ocation": 4341,
"\u0120findings": 4342,
"\u0120countries": 4343,
"\u0120fair": 4344,
"\u0120agreement": 4345,
"unction": 4346,
"exp": 4347,
"lock": 4348,
"athe": 4349,
"SP": 4350,
"king": 4351,
"\u0120hit": 4352,
"void": 4353,
"\u0120easily": 4354,
"ida": 4355,
"\u0120\u0120\u0120\u0120\u0120\u0120\u0120\u0120\u0120\u0120\u0120\u0120\u0120\u0120\u0120\u0120\u0120": 4356,
"/>": 4357,
"\u0120las": 4358,
"\u0120clust": 4359,
"ibly": 4360,
"\u0120reading": 4361,
"orem": 4362,
"wide": 4363,
"iency": 4364,
"\u0120swe": 4365,
"\u0120notice": 4366,
"\u0120files": 4367,
"ocol": 4368,
"\u0120psych": 4369,
"\u0120dog": 4370,
"fort": 4371,
"\u0120----------------": 4372,
"\u0120hyper": 4373,
"Yes": 4374,
"\u0120sites": 4375,
"\u0120price": 4376,
"\u0120King": 4377,
"\u0120Mich": 4378,
"ford": 4379,
"ights": 4380,
"\u0120neigh": 4381,
"\u0120computer": 4382,
"\u0120English": 4383,
"\u0120web": 4384,
"\u0120comment": 4385,
"\u0120Ob": 4386,
"public": 4387,
"\u0120aim": 4388,
"\u0120saf": 4389,
"\u0120currently": 4390,
"\u0120changed": 4391,
"\u0120TH": 4392,
"semb": 4393,
"\u0120ones": 4394,
"\u0120moved": 4395,
"zz": 4396,
"\u0120September": 4397,
"\u0120\\<": 4398,
"group": 4399,
"\u0120federal": 4400,
"\u0120manufact": 4401,
"operator": 4402,
"plit": 4403,
"\u0120towards": 4404,
"urt": 4405,
"\u0120emerg": 4406,
"\u0120\u00d0\u00b2": 4407,
"\u0120tissue": 4408,
"\u0120worth": 4409,
"\u0120Red": 4410,
"aur": 4411,
"\u0120District": 4412,
"\u0120companies": 4413,
"_.": 4414,
"elle": 4415,
"\u0120Feb": 4416,
"\u0120cook": 4417,
"\u0120\u00d0\u00bd": 4418,
"\u0120requires": 4419,
"ares": 4420,
"cap": 4421,
"\u0120website": 4422,
"orage": 4423,
"ffer": 4424,
"\u0120decided": 4425,
"\u0120qual": 4426,
"rate": 4427,
"\u0120contains": 4428,
"\u0120thous": 4429,
"\u0120arm": 4430,
"itions": 4431,
"\u0120recept": 4432,
"\u0120failure": 4433,
"ouble": 4434,
"\u00d1\u0129": 4435,
"\u0120sche": 4436,
"\u0120October": 4437,
"\u0120mode": 4438,
"\u0120released": 4439,
"\u0120imag": 4440,
"\u0120located": 4441,
"oding": 4442,
"\u0120emb": 4443,
"\u0120plant": 4444,
"\u0120component": 4445,
"\u0120drive": 4446,
"\u0120formed": 4447,
"ris": 4448,
"BS": 4449,
"\u0120board": 4450,
"\u0120unique": 4451,
"ifically": 4452,
"\u0120looks": 4453,
"\u0120names": 4454,
"\u0120seemed": 4455,
"\u0120remember": 4456,
"\u0120beyond": 4457,
"\u0120Int": 4458,
"\u0120carry": 4459,
"\u0120novel": 4460,
"room": 4461,
"unn": 4462,
"cil": 4463,
"((": 4464,
"\u0120extra": 4465,
"\u0120culture": 4466,
"\u00d9\u0126": 4467,
"\u0120concern": 4468,
"\u0120expressed": 4469,
"\u0120inn": 4470,
"\u0120multi": 4471,
"\u0120Stud": 4472,
"\u0120concept": 4473,
"\u0120por": 4474,
"\u0120wife": 4475,
"Des": 4476,
"\u0120authors": 4477,
"init": 4478,
"\\'": 4479,
"\u0120Trans": 4480,
"\u0120phone": 4481,
"bb": 4482,
"\u0120allows": 4483,
"\u0120cool": 4484,
"------": 4485,
"older": 4486,
"\u0120Department": 4487,
"opl": 4488,
"\u0120buy": 4489,
"TT": 4490,
"\u0120industry": 4491,
"link": 4492,
"\u0120circum": 4493,
"\u0120descript": 4494,
"\u0120meaning": 4495,
"\u0120please": 4496,
"Well": 4497,
"\u0120song": 4498,
"\u0120contrast": 4499,
"\u0120option": 4500,
"i\u00c3\u00b3n": 4501,
"\u0120tumor": 4502,
"\u0120equal": 4503,
"irmed": 4504,
"File": 4505,
"\u0120exerc": 4506,
"active": 4507,
"\u0120containing": 4508,
"From": 4509,
"\u0120prefer": 4510,
"pace": 4511,
"\u0120slight": 4512,
"iate": 4513,
"\u0120commit": 4514,
"wards": 4515,
"\u0120supported": 4516,
"\u0120trust": 4517,
"\u0120clearly": 4518,
"varepsilon": 4519,
"\u0120numer": 4520,
"othes": 4521,
"\u0120tim": 4522,
"ULL": 4523,
"under": 4524,
"uted": 4525,
"^+": 4526,
"Of": 4527,
"dim": 4528,
"92": 4529,
"ka": 4530,
"Set": 4531,
"tee": 4532,
"\u0120roll": 4533,
"vis": 4534,
"varphi": 4535,
"\u0120sometimes": 4536,
"user": 4537,
"Sec": 4538,
"uns": 4539,
"\u0120discl": 4540,
"\u0120quickly": 4541,
"asm": 4542,
"\u0120nor": 4543,
"\u0120campaign": 4544,
"\u0120advant": 4545,
"\u0120played": 4546,
"osite": 4547,
"MP": 4548,
"\u0120appeal": 4549,
"odies": 4550,
"aught": 4551,
"iful": 4552,
"After": 4553,
"\u0120cyt": 4554,
"\u0120exactly": 4555,
"*.": 4556,
"quest": 4557,
"\u0120remains": 4558,
"\u0120Mod": 4559,
"\u0120finding": 4560,
"\u0120generated": 4561,
"\u012031": 4562,
"\u0120Cons": 4563,
"\u0120couple": 4564,
"\u0120December": 4565,
"\u0120goes": 4566,
"\u012032": 4567,
"\u0120Rec": 4568,
"\u0120appropriate": 4569,
"perty": 4570,
"\u0120couldn": 4571,
"\u0120interview": 4572,
"untu": 4573,
"overn": 4574,
"\u0120adjust": 4575,
"SA": 4576,
"\u0120smaller": 4577,
"================================": 4578,
"\u0120email": 4579,
"irt": 4580,
"\u0120closed": 4581,
"\u0120arriv": 4582,
"\u0120overall": 4583,
"aker": 4584,
"\u0120highest": 4585,
"rier": 4586,
")-": 4587,
"\u0120actual": 4588,
"\u0120ax": 4589,
"93": 4590,
"\u0120Je": 4591,
"\u0120happened": 4592,
"\u0120effic": 4593,
"\u0120Afric": 4594,
"ara": 4595,
"\u0120November": 4596,
"\u0120Det": 4597,
"../../": 4598,
"iforn": 4599,
"\u0120sleep": 4600,
"encies": 4601,
"\u0120connection": 4602,
"bum": 4603,
"Fr": 4604,
"\u0120String": 4605,
"\u0120reasons": 4606,
"\u0120relig": 4607,
"hand": 4608,
"which": 4609,
"\u0120options": 4610,
"ato": 4611,
"Def": 4612,
"\u0120candid": 4613,
"rad": 4614,
"\\,": 4615,
"\u0120transport": 4616,
"\u0120impos": 4617,
"\u0120wide": 4618,
"\u0120critical": 4619,
"\u0120appears": 4620,
"irit": 4621,
"*]{}": 4622,
"\u0120relevant": 4623,
"iques": 4624,
"EC": 4625,
"anged": 4626,
"\u0120upp": 4627,
"urance": 4628,
"kay": 4629,
"\u0120stru": 4630,
"ais": 4631,
"\u0120vs": 4632,
"\u0120popular": 4633,
"overy": 4634,
"chi": 4635,
"ample": 4636,
"\u0120License": 4637,
"rum": 4638,
"FL": 4639,
"\u0120electro": 4640,
"UL": 4641,
"vec": 4642,
"\u0120\u0120\u0120\u0120\u0120\u0120\u0120\u0120\u0120\u0120\u0120\u0120\u0120\u0120\u0120\u0120\u0120\u0120": 4643,
"\u0120volume": 4644,
"\u0120showing": 4645,
"\u0120medium": 4646,
"\u0120apply": 4647,
"\u0120uses": 4648,
"\u0120algorith": 4649,
"round": 4650,
"\u0120parents": 4651,
"orge": 4652,
"\u0120PR": 4653,
"\u0120\u00ce\u00bc": 4654,
"lick": 4655,
"\u0120restrict": 4656,
"\u0120store": 4657,
"lib": 4658,
"static": 4659,
"\u0120station": 4660,
"\u0120Che": 4661,
"rick": 4662,
"index": 4663,
"ashington": 4664,
"\u0120interpret": 4665,
"\u0120node": 4666,
"\u0120pair": 4667,
"\u0120military": 4668,
"\u0120feet": 4669,
"iers": 4670,
"icip": 4671,
"!!": 4672,
"\u0120Sen": 4673,
"section": 4674,
"\u0120hospital": 4675,
"\u0120parties": 4676,
"\u0120figure": 4677,
"Be": 4678,
"\u0120experiments": 4679,
"\u0120thinking": 4680,
".[": 4681,
"\u0120mur": 4682,
"\u0120Of": 4683,
"\u0120connect": 4684,
"\u0120understanding": 4685,
"cluded": 4686,
"\u0120Republic": 4687,
"\u0120fat": 4688,
"}_{\\": 4689,
"rael": 4690,
"\u0120mal": 4691,
"ano": 4692,
"\u0120London": 4693,
"vision": 4694,
"\u01202008": 4695,
"ael": 4696,
"board": 4697,
"mark": 4698,
"002": 4699,
".$$": 4700,
"ruary": 4701,
"\u0120formation": 4702,
"enge": 4703,
"\u0120ready": 4704,
"iday": 4705,
"\u0120sec": 4706,
"\u0120hair": 4707,
"RT": 4708,
"\u0120fear": 4709,
"\u0120throw": 4710,
"\u0120produce": 4711,
"\u0120activities": 4712,
"\\<": 4713,
"well": 4714,
"\u0120learning": 4715,
"\u0120Hol": 4716,
"Add": 4717,
"};": 4718,
"\u0120concentration": 4719,
"\u0120finally": 4720,
"istry": 4721,
"\u0120interesting": 4722,
"\u0120damage": 4723,
"\u0120filed": 4724,
"\u0120/>": 4725,
"\u0120School": 4726,
"Supp": 4727,
"\u0120subsequ": 4728,
"ifornia": 4729,
"\u0120education": 4730,
"\u0120Cong": 4731,
"\u0120virt": 4732,
"\u00cf\u0124": 4733,
"\u0120pul": 4734,
"\u0120feature": 4735,
"\u0120goal": 4736,
"\u0120proof": 4737,
"======": 4738,
"91": 4739,
"aste": 4740,
"OV": 4741,
"ky": 4742,
"\u0120opinion": 4743,
"\u0120Mark": 4744,
"\u0120immediately": 4745,
"\u00e3\u0122\u0123": 4746,
"\u0120challeng": 4747,
"\u01202009": 4748,
"Sim": 4749,
"\u0120staff": 4750,
"\u0120fully": 4751,
"cos": 4752,
"\u0120materials": 4753,
"\u0120yes": 4754,
"\u0120obvious": 4755,
"Error": 4756,
"\u0120strength": 4757,
"\u0120setting": 4758,
"\u0120green": 4759,
"\u0120player": 4760,
"ersion": 4761,
"rep": 4762,
"\u0120receive": 4763,
"\u0120parameter": 4764,
"\u01202018": 4765,
"\u0120middle": 4766,
"\u0120stated": 4767,
"\u0120throughout": 4768,
"Time": 4769,
"\u0120uint": 4770,
"\u0120server": 4771,
"\u0120__": 4772,
"ptr": 4773,
"force": 4774,
"\u0120Health": 4775,
"\u0120hab": 4776,
"stances": 4777,
"\u0120variable": 4778,
"Man": 4779,
"\u0120progress": 4780,
"alle": 4781,
"\u0120British": 4782,
"\u0120gone": 4783,
"\u0120mit": 4784,
"PP": 4785,
"fo": 4786,
"otes": 4787,
"adem": 4788,
"py": 4789,
"ymbol": 4790,
"\u012035": 4791,
"stance": 4792,
"base": 4793,
"\u0120According": 4794,
"\u0120resulting": 4795,
"\u0120reduce": 4796,
"\u0120blue": 4797,
"\u0120Austral": 4798,
"}^{\\": 4799,
")^": 4800,
"orney": 4801,
"\u0120connected": 4802,
"\u0120rules": 4803,
"\u0120meeting": 4804,
"bin": 4805,
"\u0120sto": 4806,
"Int": 4807,
"\u0120skin": 4808,
"\u0120aspect": 4809,
"\u0120Willi": 4810,
"\u0120regions": 4811,
"\u0120internal": 4812,
"\u0120exhib": 4813,
"Key": 4814,
"\u0120costs": 4815,
"\u0120($": 4816,
"\u0120passed": 4817,
"pol": 4818,
"\u0120Bro": 4819,
"operatorname": 4820,
"\u0120continued": 4821,
"\u0120collect": 4822,
"\u0120consequ": 4823,
"\u0120carried": 4824,
"\u0120Em": 4825,
"style": 4826,
"TER": 4827,
"\u0120counter": 4828,
"\u0120nearly": 4829,
"\u0120onto": 4830,
"\u0120demand": 4831,
"\u0120financial": 4832,
"\u0120influence": 4833,
"\u0120yourself": 4834,
"item": 4835,
"\u0120task": 4836,
"iling": 4837,
"003": 4838,
"\u0120chance": 4839,
"\u0120mess": 4840,
"langle": 4841,
"*-": 4842,
"asc": 4843,
"atever": 4844,
"\u0120placed": 4845,
")**": 4846,
"\u0120absol": 4847,
"\u0120rob": 4848,
"\u0120collection": 4849,
"\u0120gets": 4850,
"\u0120cit": 4851,
"\u0120lives": 4852,
"\u0120define": 4853,
"\u0120hearing": 4854,
"\u0120High": 4855,
"msg": 4856,
"\u0120letter": 4857,
"\u0120separate": 4858,
"\u0120links": 4859,
"\u0120indicated": 4860,
"ded": 4861,
"overline": 4862,
"oses": 4863,
"\u0120brief": 4864,
"\u0120binding": 4865,
"\u0120movement": 4866,
"\u0120Tw": 4867,
"\u0120score": 4868,
"\u0120maximum": 4869,
"\u0120processes": 4870,
"\u0120width": 4871,
"\u0120linear": 4872,
"RI": 4873,
"\u0120liqu": 4874,
"oat": 4875,
"\u0120letters": 4876,
"DA": 4877,
"\u0120Mus": 4878,
"\u0120noted": 4879,
".\\": 4880,
"oto": 4881,
"\u0120playing": 4882,
"NS": 4883,
"\u0120reaction": 4884,
"arest": 4885,
"\u0120moving": 4886,
"\u0120reflect": 4887,
"\u010d\u010a\u010d": 4888,
"\u0120AND": 4889,
"\u0120\"\"": 4890,
"\u0120solid": 4891,
"\u0120tour": 4892,
"\u0120applications": 4893,
"omb": 4894,
"\u0120returned": 4895,
"works": 4896,
"color": 4897,
"\u0120height": 4898,
"PA": 4899,
"\u0120ign": 4900,
"\u0120enter": 4901,
"ooth": 4902,
"\u0120variables": 4903,
"pa": 4904,
"itro": 4905,
"pling": 4906,
"\u0120named": 4907,
"\u0120extract": 4908,
"font": 4909,
"\u0120fields": 4910,
"pective": 4911,
"\u0120medic": 4912,
"\u0120Park": 4913,
"asis": 4914,
"\u0120AT": 4915,
"\u0120becomes": 4916,
"\u0120yield": 4917,
"\u0120therapy": 4918,
"related": 4919,
"\u0120mort": 4920,
"omas": 4921,
"\u0120Mor": 4922,
"\u0120Because": 4923,
"free": 4924,
"\u0120reached": 4925,
"roy": 4926,
"\u0120si": 4927,
"\u0120\u010a\u0120": 4928,
"\u0120brother": 4929,
"asion": 4930,
"\u0120perhaps": 4931,
"^{(": 4932,
"\u0120giving": 4933,
"\u0120kept": 4934,
"}}(": 4935,
"\u0120grand": 4936,
"\u0120sympt": 4937,
"asp": 4938,
"cules": 4939,
"inger": 4940,
"References": 4941,
"\u0120relatively": 4942,
"Here": 4943,
"\u0120fit": 4944,
"\u010a\u0120\u0120\u0120\u0120\u0120\u0120\u0120\u0120\u0120\u0120\u0120\u0120\u0120": 4945,
"bra": 4946,
"Class": 4947,
"\u0120forms": 4948,
"hold": 4949,
"\u0120revealed": 4950,
"\u0120straight": 4951,
"\u0120Even": 4952,
"atur": 4953,
"\u0120\u00d8": 4954,
"\u0120org": 4955,
"\u0120wild": 4956,
"\u0120items": 4957,
"\u0120vehicle": 4958,
"\u0120android": 4959,
"iform": 4960,
"\u0120exists": 4961,
"\u0120died": 4962,
"stream": 4963,
"\u0120hour": 4964,
"\u0120Ang": 4965,
"ATE": 4966,
"Why": 4967,
"\u0120tool": 4968,
"\u0120instit": 4969,
"\u0120scient": 4970,
"grad": 4971,
"\u0120vector": 4972,
"\u0120sources": 4973,
"\u0120Sub": 4974,
"\u0120injury": 4975,
"DR": 4976,
"othe": 4977,
"berg": 4978,
"\u0120transform": 4979,
"\u0120modern": 4980,
"\u0120util": 4981,
"\"},": 4982,
"\u0120starting": 4983,
"\u0120jury": 4984,
"OO": 4985,
"omic": 4986,
"\u0120hous": 4987,
"amin": 4988,
"df": 4989,
"material": 4990,
"rant": 4991,
"\u00ce\u00b7": 4992,
"\u0120fix": 4993,
"erved": 4994,
"utive": 4995,
"\u0120intr": 4996,
"func": 4997,
"oman": 4998,
"\u0120safe": 4999,
"}}_": 5000,
"\u0120regarding": 5001,
"\u0120California": 5002,
"\u0120San": 5003,
"\u0120bottom": 5004,
"cles": 5005,
"\u0120boy": 5006,
"\u0120send": 5007,
"\u0120convention": 5008,
"atin": 5009,
"\u0120otherwise": 5010,
"otion": 5011,
"\u0120reports": 5012,
"['": 5013,
"\u0120participants": 5014,
"\u0120talking": 5015,
"\u0120interaction": 5016,
"\u0120stuff": 5017,
"\u0120steps": 5018,
"\u0120combination": 5019,
"\u0120majority": 5020,
"ella": 5021,
"\u00c3\u0125": 5022,
"().": 5023,
"\u0120edge": 5024,
"len": 5025,
"\u0120thick": 5026,
"\u0120contribut": 5027,
"\u0120domain": 5028,
")).": 5029,
"\u0120pow": 5030,
"\u00d1\u0123\u00d1\u0124": 5031,
"\u0120]": 5032,
"icit": 5033,
"erate": 5034,
"See": 5035,
"ech": 5036,
"\u0120Don": 5037,
"ayout": 5038,
"Ab": 5039,
"cons": 5040,
"\u0120Washington": 5041,
"\u0120^": 5042,
"\u0120plus": 5043,
"\u0120basic": 5044,
"case": 5045,
"\u0120maybe": 5046,
"rend": 5047,
"\u0120channel": 5048,
"\u0120circuit": 5049,
"\u0120incor": 5050,
"urity": 5051,
"\u0120resistance": 5052,
"\u0120places": 5053,
"\u0120economic": 5054,
"\u0120picked": 5055,
"long": 5056,
"\u0120Get": 5057,
"\u0120zero": 5058,
"grams": 5059,
"enses": 5060,
"\u0120uns": 5061,
"\u0120~": 5062,
"abled": 5063,
">>": 5064,
"Comp": 5065,
"\u0120infection": 5066,
"\u0120counsel": 5067,
"\u0120beginning": 5068,
"\u00c3\u00a9s": 5069,
"place": 5070,
"////////": 5071,
"Me": 5072,
"fil": 5073,
"\u0120animals": 5074,
"\u0120weak": 5075,
"\u0120Moreover": 5076,
"PC": 5077,
"\u0120concentr": 5078,
"\u0120civil": 5079,
"\u0120February": 5080,
"\u0120(\\": 5081,
"\u0120wouldn": 5082,
"\u0120truth": 5083,
"\u0120column": 5084,
"\u0120units": 5085,
"\u0120male": 5086,
"\u0120paid": 5087,
"True": 5088,
"Test": 5089,
"geq": 5090,
"\u012090": 5091,
"can": 5092,
"\u0120seven": 5093,
"\u0120(**": 5094,
"\u0120\\,": 5095,
"\u012080": 5096,
"oken": 5097,
"\u0120books": 5098,
"\u0120jur": 5099,
"\u0120establish": 5100,
"\u0120sun": 5101,
"ady": 5102,
"\u0120shot": 5103,
"iny": 5104,
"\u0120eth": 5105,
"\u0120USA": 5106,
"\u0120opportunity": 5107,
"\u0120happen": 5108,
"itors": 5109,
"\u0120portion": 5110,
"\u0120um": 5111,
"\u0120French": 5112,
"\u0120objects": 5113,
"sis": 5114,
"\u0120achieve": 5115,
"ename": 5116,
"\u00cf\u0127": 5117,
"\u0120calculated": 5118,
"\u0120David": 5119,
"onic": 5120,
"\u0120\u0120\u0120\u0120\u0120\u0120\u0120\u0120\u0120\u0120\u0120\u0120\u0120\u0120\u0120\u0120\u0120\u0120\u0120\u0120": 5121,
"\u0120mechanism": 5122,
"uses": 5123,
"\u0120phosph": 5124,
"\u0120suggested": 5125,
"\u00d0\u00b5\u00d0\u00bd": 5126,
"\u0120analys": 5127,
"\u0120Data": 5128,
"\u00d0\u00b4": 5129,
"\u0120eye": 5130,
"\u0120Other": 5131,
"\u0120synthe": 5132,
"\u0120manner": 5133,
"ny": 5134,
"\u0120lib": 5135,
":\"": 5136,
"');": 5137,
"\u00e7\u013c": 5138,
"\u0120je": 5139,
"\u0120construction": 5140,
"\u0120reduction": 5141,
"tem": 5142,
"\u0120Israel": 5143,
"\u0120\u0120\u0120\u0120\u0120\u0120\u0120\u0120\u0120\u0120\u0120\u0120\u0120\u0120\u0120\u0120\u0120\u0120\u0120\u0120\u0120": 5144,
"\u0120machine": 5145,
"######": 5146,
"\u0120platform": 5147,
"\u0120metal": 5148,
"\u0120wave": 5149,
"\u0120equation": 5150,
"\u00e3\u0123\u0126": 5151,
"\u0120bul": 5152,
"\u0120histor": 5153,
"agon": 5154,
"iance": 5155,
"ocket": 5156,
"stitute": 5157,
"gery": 5158,
"\u0120kill": 5159,
"\u00d0\u00bc": 5160,
"\u0120core": 5161,
"\u0120processing": 5162,
"orry": 5163,
"\u0120functional": 5164,
"\u0120apparent": 5165,
"CS": 5166,
"\u0120susp": 5167,
"di": 5168,
"eria": 5169,
"\u0120upper": 5170,
"\u0120Paul": 5171,
"\u0120wa": 5172,
"je": 5173,
"otype": 5174,
"\u0120testing": 5175,
"\u0120removed": 5176,
"\u0120complic": 5177,
"Big": 5178,
"arter": 5179,
"[^": 5180,
"\u0120touch": 5181,
"ria": 5182,
"\u0120demonstrated": 5183,
"\u0120hop": 5184,
"\u0120consistent": 5185,
"\u00c3\u0132": 5186,
"inese": 5187,
"\u0120lab": 5188,
"\u0120detected": 5189,
"``": 5190,
"ingu": 5191,
"\u0120Ac": 5192,
"\u0120vill": 5193,
"\u0120agree": 5194,
"\u0120spread": 5195,
"\u0120conducted": 5196,
"\u0120Center": 5197,
"\u0120metab": 5198,
"\u0120procedure": 5199,
"ls": 5200,
"\u0120Dis": 5201,
"\u0120tree": 5202,
"\u0120label": 5203,
"\u0120->": 5204,
"\u0120neut": 5205,
"\u0120choose": 5206,
"\u0120whom": 5207,
"\u0120AM": 5208,
"gar": 5209,
"nes": 5210,
"\u0120happy": 5211,
"\u0120magnetic": 5212,
"\u0120international": 5213,
"RA": 5214,
"\u01202007": 5215,
"\u0120tests": 5216,
"\u0120equival": 5217,
"]:": 5218,
"\u0120White": 5219,
"\u0120Also": 5220,
"ocyt": 5221,
"\u0120norm": 5222,
"\u0120adapt": 5223,
"\u0120indicate": 5224,
"\u00e7\u013c\u0126": 5225,
"\u0120Pal": 5226,
"\u0120statist": 5227,
"zym": 5228,
"Ct": 5229,
"\u0120root": 5230,
"\u0120actions": 5231,
"Form": 5232,
"\u0120rapid": 5233,
"\u0120switch": 5234,
"\u0120variety": 5235,
"IA": 5236,
"\u0120harm": 5237,
"\u0120Section": 5238,
"\u0120sets": 5239,
"omin": 5240,
"\u0120peak": 5241,
"aly": 5242,
"\u0120lif": 5243,
"aughter": 5244,
"\u0120coord": 5245,
"xy": 5246,
"lam": 5247,
"\u0120cast": 5248,
"\u0120career": 5249,
"aching": 5250,
"level": 5251,
"\u0120safety": 5252,
"\u0120glass": 5253,
"\u0120floor": 5254,
"\u0120Tex": 5255,
"dot": 5256,
"\u0120tend": 5257,
"\u0120unc": 5258,
"\u0120Public": 5259,
"xx": 5260,
"\u0120wid": 5261,
"\u0120spent": 5262,
"\u0120arrest": 5263,
"\"><": 5264,
"ipp": 5265,
"\u0120petition": 5266,
"dr": 5267,
"\u0120client": 5268,
"\u0120tal": 5269,
"\u0120Table": 5270,
"\u0120Aut": 5271,
"\u0120reasonable": 5272,
"sembly": 5273,
"\u0120IL": 5274,
"\u0120nearest": 5275,
"\u0120prove": 5276,
"\u0120providing": 5277,
"frak": 5278,
"Over": 5279,
"abil": 5280,
"\u0120shape": 5281,
"zen": 5282,
"\u0120adopt": 5283,
"\u0120European": 5284,
"ctors": 5285,
"\u0120administration": 5286,
"\u0120membr": 5287,
"ME": 5288,
"\u0120structures": 5289,
"\\],": 5290,
"\u0120<<": 5291,
"rey": 5292,
"\u0120none": 5293,
"%,": 5294,
"':": 5295,
"\u0120nil": 5296,
"ci": 5297,
"tes": 5298,
"\u0120labor": 5299,
"\u0120resources": 5300,
"\u0120comparison": 5301,
"using": 5302,
"\u0120sen": 5303,
"\u0120visual": 5304,
"CP": 5305,
"\u0120cert": 5306,
"\u01202000": 5307,
"wood": 5308,
"jo": 5309,
"\u0120shoot": 5310,
"\u0120blog": 5311,
"\u0120daily": 5312,
"\u0120piece": 5313,
"rely": 5314,
"\u0120mac": 5315,
"cher": 5316,
"\u0120Figure": 5317,
"onent": 5318,
"\u0120characteristics": 5319,
"\u0120extrem": 5320,
"\u0120save": 5321,
"\u0120nice": 5322,
"\u0120laws": 5323,
"HT": 5324,
"\u012095": 5325,
"\u0120remov": 5326,
"ellig": 5327,
"\u0120gold": 5328,
"\u012045": 5329,
"Exception": 5330,
"\u0120century": 5331,
"\u0120Jack": 5332,
"\u0120shift": 5333,
"\u0120compr": 5334,
"raint": 5335,
"olved": 5336,
"ustr": 5337,
"inner": 5338,
"\u0120killed": 5339,
"\u0120plate": 5340,
"oting": 5341,
"jection": 5342,
"\u0120female": 5343,
"pected": 5344,
"\u012037": 5345,
"\u00ce\u00b2": 5346,
"\u0120capital": 5347,
"ilies": 5348,
"\u0120);": 5349,
"\u0120capacity": 5350,
"ails": 5351,
"\u0120fresh": 5352,
"aud": 5353,
"ensions": 5354,
"*(": 5355,
"ingly": 5356,
"\u0120Net": 5357,
"ensure": 5358,
"otal": 5359,
"\u0120Arm": 5360,
"ding": 5361,
"\u0120scen": 5362,
"ship": 5363,
"\u0120Democr": 5364,
"\u0120PM": 5365,
"\u0120bab": 5366,
"po": 5367,
"\u0120existing": 5368,
"\u0120unf": 5369,
"\u0120panel": 5370,
"what": 5371,
"atically": 5372,
"\u0120benefits": 5373,
"info": 5374,
"abs": 5375,
"\u0120Inst": 5376,
"FA": 5377,
"pir": 5378,
"stitution": 5379,
"oute": 5380,
"\u0120wat": 5381,
"\u0120item": 5382,
"\u0120Inter": 5383,
"\u0120mist": 5384,
"\u0120cru": 5385,
"\u0120remove": 5386,
"\u0120dut": 5387,
"500": 5388,
"\u0120beautiful": 5389,
"\u0120substr": 5390,
"ini": 5391,
"wid": 5392,
"\u0120mentioned": 5393,
"idden": 5394,
"rices": 5395,
"\u0120Indian": 5396,
"config": 5397,
"\u0120prem": 5398,
"\u0120Commission": 5399,
"\u0120album": 5400,
"arth": 5401,
"\u0120Your": 5402,
"\u01202006": 5403,
"lict": 5404,
"\u0120Law": 5405,
"\u0120picture": 5406,
"\u0120replacement": 5407,
"\u0120diss": 5408,
"uman": 5409,
"vest": 5410,
"ifying": 5411,
"\u0120cold": 5412,
"]\\],": 5413,
"PD": 5414,
"\u0120continuous": 5415,
"\u0120ensure": 5416,
"\u0120ID": 5417,
"\u0120Black": 5418,
"\u0120pun": 5419,
"\u0120appeared": 5420,
"\u0120studied": 5421,
"ensional": 5422,
"input": 5423,
"\u0120hus": 5424,
"ifier": 5425,
"\u0120definition": 5426,
"\u0120India": 5427,
"TE": 5428,
"\u010a\u010a\u010a\u010a": 5429,
"how": 5430,
"\u0120typically": 5431,
"itz": 5432,
"\u0120regul": 5433,
"\u0120danger": 5434,
"\u0120crim": 5435,
"apping": 5436,
"\u00c3\u00aa": 5437,
"\u0120selection": 5438,
"\u0120raised": 5439,
"\u0120cop": 5440,
"\u0120facts": 5441,
"anned": 5442,
"State": 5443,
"\u00e3\u0123\u00ab": 5444,
"\u0120exposure": 5445,
"\u0120AD": 5446,
"\u0120database": 5447,
"\u0120wind": 5448,
"flow": 5449,
"rome": 5450,
"\u0120burn": 5451,
"\u010d\u010a\u0120\u0120\u0120\u0120\u0120\u0120\u0120": 5452,
"\u0120club": 5453,
"\u0120trade": 5454,
"Path": 5455,
"[]": 5456,
"\u0120ampl": 5457,
"osen": 5458,
"\u0120increases": 5459,
"\u0120severe": 5460,
"\u0120therm": 5461,
"sey": 5462,
"ilos": 5463,
"ette": 5464,
"host": 5465,
"\u0120Sec": 5466,
"\u0120assume": 5467,
"acters": 5468,
"\u0120discussed": 5469,
"db": 5470,
"\u0120feeling": 5471,
"IB": 5472,
"='": 5473,
"\u0120doc": 5474,
"Item": 5475,
"\u0120guess": 5476,
"ago": 5477,
"start": 5478,
"ESS": 5479,
"\u0120prepared": 5480,
"\u0120detection": 5481,
"\u0120solutions": 5482,
"endant": 5483,
"\u0120drink": 5484,
"\u0120opened": 5485,
"\u0120meant": 5486,
"\u0120victim": 5487,
"\u0120Furthermore": 5488,
"\u0120Research": 5489,
"\u0120James": 5490,
"iced": 5491,
"\u0120race": 5492,
"ston": 5493,
"\u00e4\u00ba": 5494,
"ipe": 5495,
"Size": 5496,
"\u0120mo": 5497,
"Don": 5498,
"\u0120mill": 5499,
"\u0120cup": 5500,
"conne": 5501,
"\u0120transition": 5502,
"ota": 5503,
"uced": 5504,
"\u0120Associ": 5505,
"\u0120responsible": 5506,
"\u00c3\u00a6": 5507,
"\u0120spin": 5508,
"indows": 5509,
"\u0120laug": 5510,
"\u0120communication": 5511,
"\u0120approximately": 5512,
"\u0120explain": 5513,
"\u0120ded": 5514,
"\u0120Rober": 5515,
"\u0120Ham": 5516,
"\u0120witness": 5517,
"FT": 5518,
"icks": 5519,
"\u0120improved": 5520,
"orter": 5521,
"\u0120package": 5522,
"005": 5523,
"\u0120bud": 5524,
"004": 5525,
"rical": 5526,
"ruit": 5527,
"cor": 5528,
"UM": 5529,
"soft": 5530,
"\u0120Oh": 5531,
"\u0120click": 5532,
"\u0120bond": 5533,
"\u0120wood": 5534,
"\u0120upd": 5535,
"\u0120heavy": 5536,
"encing": 5537,
"igation": 5538,
"ensuremath": 5539,
"\u012036": 5540,
"\u0120lip": 5541,
"\u0120stream": 5542,
"AND": 5543,
"\u0120explained": 5544,
"\u0120doubt": 5545,
"car": 5546,
"\u0120successful": 5547,
"},\\": 5548,
"\u0120na": 5549,
"\u0120(\"": 5550,
"produ": 5551,
"\u0120List": 5552,
"\u0120radio": 5553,
"?'": 5554,
"osing": 5555,
"\u0120optim": 5556,
"\u0120rout": 5557,
"\u0120liquid": 5558,
"\u0120Google": 5559,
"count": 5560,
"\u0120rock": 5561,
"\u00c2\u0142\u00c2\u0142\u00c2\u0142\u00c2\u0142": 5562,
"\u0120mig": 5563,
"title": 5564,
"\u0120bacter": 5565,
"\u0120Off": 5566,
"istant": 5567,
"ban": 5568,
"\u0120lock": 5569,
"\u0120agent": 5570,
"\u012070": 5571,
"\u0120operator": 5572,
"\u0120occup": 5573,
"circ": 5574,
"\u0120alleged": 5575,
"ographic": 5576,
"mathfrak": 5577,
"\u0120PC": 5578,
"\u0120TV": 5579,
"\u0120sell": 5580,
"php": 5581,
"han": 5582,
"\u0120recommend": 5583,
"/(-": 5584,
"agement": 5585,
"\u0120para": 5586,
"\u0120Spec": 5587,
"\u00c4\u00b1": 5588,
"ldots": 5589,
"hal": 5590,
"\u0120UK": 5591,
"\u0120commerc": 5592,
"\u0120measures": 5593,
"java": 5594,
"\u0120Most": 5595,
"appa": 5596,
"\u0120dismiss": 5597,
"parent": 5598,
"\u0120guy": 5599,
"\u0120transl": 5600,
"\u0120prepar": 5601,
"\u0120Mac": 5602,
"\u0120park": 5603,
"\u0120certainly": 5604,
"\u0120wants": 5605,
"\u0120evolution": 5606,
"EE": 5607,
"\u0120served": 5608,
"\u0120techniques": 5609,
"anging": 5610,
"\u0120introduced": 5611,
"\u0120Rich": 5612,
"\u0120\u00cf\u0126": 5613,
"asma": 5614,
"\u0120sexual": 5615,
"lem": 5616,
"\u00c4\u0123": 5617,
"';": 5618,
"\u0120Sy": 5619,
"cin": 5620,
"\u0120forces": 5621,
"Bl": 5622,
"Sub": 5623,
"/(": 5624,
"\u0120International": 5625,
"ALL": 5626,
"*)": 5627,
"\u0120Chinese": 5628,
"ario": 5629,
"ride": 5630,
"\u0120Govern": 5631,
"imony": 5632,
"\u0120Jer": 5633,
"\u0120legis": 5634,
"\u0120Ev": 5635,
"\u0120convers": 5636,
"\u0120electric": 5637,
"........": 5638,
"\u0120foreign": 5639,
"\u0120\u0120\u0120\u0120\u0120\u0120\u0120\u0120\u0120\u0120\u0120\u0120\u0120\u0120\u0120\u0120\u0120\u0120\u0120\u0120\u0120\u0120\u0120": 5640,
"space": 5641,
"\u0120CH": 5642,
"tre": 5643,
"\u0120leads": 5644,
"\u0120expand": 5645,
"ubuntu": 5646,
"\"/>": 5647,
"SH": 5648,
"\u0120benefit": 5649,
"ura": 5650,
"rian": 5651,
"ferent": 5652,
"False": 5653,
"\u0120gun": 5654,
"bolds": 5655,
"ANT": 5656,
"\u0120tools": 5657,
"you": 5658,
"\u0120programs": 5659,
"icial": 5660,
"\u0120experimental": 5661,
"\u0120older": 5662,
"\u0120belong": 5663,
"boldsymbol": 5664,
"\u0120surround": 5665,
"enced": 5666,
"\u0120essential": 5667,
"nb": 5668,
"\u0120insert": 5669,
"ascular": 5670,
"itect": 5671,
"true": 5672,
"\u0120interface": 5673,
"\u0120nation": 5674,
"\u0120growing": 5675,
"\u00ce\u00ba": 5676,
"Out": 5677,
"\u0120combined": 5678,
"\u0120Jew": 5679,
"\u0120border": 5680,
"going": 5681,
"\u0120Dan": 5682,
"Up": 5683,
"\u0120defense": 5684,
"\u0120German": 5685,
"\u0120born": 5686,
"\u0120Press": 5687,
"lication": 5688,
"\u0120RE": 5689,
"\u00e4\u00bb": 5690,
"\u0120challenge": 5691,
"rient": 5692,
"\u012048": 5693,
"\u0120motor": 5694,
"image": 5695,
"LA": 5696,
"\u0120ideas": 5697,
"\u0120vent": 5698,
"\u0120huge": 5699,
"\u0120strategy": 5700,
"\u0120comments": 5701,
"\u0120professional": 5702,
"Read": 5703,
"etry": 5704,
"\u0120subjects": 5705,
"\u0120Att": 5706,
"CON": 5707,
"\u0120kin": 5708,
"[\\": 5709,
"idem": 5710,
"vo": 5711,
"\u0120Rel": 5712,
"\u0120fib": 5713,
"itivity": 5714,
"(),": 5715,
"({\\": 5716,
"\u0120thank": 5717,
"\u0120storage": 5718,
"mail": 5719,
"\u0120Street": 5720,
"\u0120Fe": 5721,
"\u0120award": 5722,
"\u0120neur": 5723,
"\u0120monitor": 5724,
"orrow": 5725,
"pers": 5726,
"\u0120whereas": 5727,
"\u0120collected": 5728,
"\u0120Pre": 5729,
"\u0120wish": 5730,
"\u0120update": 5731,
"urrent": 5732,
"\u0120Add": 5733,
"\u0120unless": 5734,
"idel": 5735,
"PT": 5736,
"**)": 5737,
"ua": 5738,
"\u0120stock": 5739,
"\u0120description": 5740,
"ita": 5741,
"\u0120specifically": 5742,
"\u0120activation": 5743,
"raz": 5744,
"\u0120sav": 5745,
"arant": 5746,
"\u0120despite": 5747,
"\u0120optical": 5748,
"\u0120\"[": 5749,
"\u0120advantage": 5750,
"kt": 5751,
"\u0120serve": 5752,
"\u0120kids": 5753,
"\u0120prison": 5754,
"icity": 5755,
"chen": 5756,
"ART": 5757,
"open": 5758,
"\u0120Congress": 5759,
"\u0120controls": 5760,
"\u0120Two": 5761,
"\u0120tested": 5762,
"\u0120exercise": 5763,
"Lambda": 5764,
"\u0120vert": 5765,
"\u0120empt": 5766,
"\u0120Miss": 5767,
"\u0120summer": 5768,
"\u0120Sam": 5769,
"\u0120mg": 5770,
"\u0120RNA": 5771,
"\u0120kid": 5772,
"ulf": 5773,
".](": 5774,
"othing": 5775,
"\u00ce\u00bb": 5776,
"\u0120slightly": 5777,
"\u0120delay": 5778,
"\u0120Post": 5779,
"\u0120remaining": 5780,
"aa": 5781,
"\u0120proport": 5782,
"\u0120confirmed": 5783,
"rd": 5784,
"Reg": 5785,
"otimes": 5786,
"\u0120molecular": 5787,
"\u0120survival": 5788,
")/(-": 5789,
"\u00d0\u00be\u00d0\u00b2": 5790,
"\u0120East": 5791,
"lt": 5792,
"\u0120chemical": 5793,
"\u0120Mart": 5794,
"\u0120alternative": 5795,
"\u0120pal": 5796,
"eds": 5797,
"\u0120cat": 5798,
"\u0120distinct": 5799,
"isd": 5800,
"hi": 5801,
"\u0120induced": 5802,
"\u0120NOT": 5803,
"Can": 5804,
"ipment": 5805,
"\u0120filter": 5806,
"\u0120sch": 5807,
"\u0120\u0120\u0120\u0120\u0120\u0120\u0120\u0120\u0120\u0120\u0120\u0120\u0120\u0120\u0120\u0120\u0120\u0120\u0120\u0120\u0120\u0120": 5808,
"\u0120vac": 5809,
"\u0120characters": 5810,
"ows": 5811,
"\u0120NULL": 5812,
"\u0120fif": 5813,
"\u010a\u010a\u0120\u0120\u0120\u0120\u0120": 5814,
"\u0120Each": 5815,
"\u0120missing": 5816,
"\u00e2\u0122\u00a2": 5817,
"\u0120ring": 5818,
"\u0120Circ": 5819,
"\u0120workers": 5820,
"\u0120agreed": 5821,
"\u0120\u00d0\u00b8": 5822,
"\u0120mm": 5823,
"SI": 5824,
"\u0120nut": 5825,
"\u01202005": 5826,
"\u0120plans": 5827,
"\u0120vel": 5828,
"osc": 5829,
"ba": 5830,
"0001": 5831,
"\u00e3\u0124\u012d": 5832,
"\u0120complaint": 5833,
"\u0120catch": 5834,
"\u0120drugs": 5835,
"\u0120CON": 5836,
"isation": 5837,
"\u0120Note": 5838,
"\u0120investigation": 5839,
"kg": 5840,
"\u0120calls": 5841,
"\u0120football": 5842,
"\u00d9\u0127": 5843,
"bm": 5844,
"uing": 5845,
"\u00d9\u0128": 5846,
"\u0120pros": 5847,
"ql": 5848,
"asure": 5849,
"Calculate": 5850,
"AV": 5851,
"iders": 5852,
"\u0120technique": 5853,
"\u0120England": 5854,
"\u0120weap": 5855,
"Context": 5856,
"\u0120entry": 5857,
"pass": 5858,
"\u0120science": 5859,
"onna": 5860,
"\u0120records": 5861,
"\u0120absor": 5862,
"\u0120Up": 5863,
"\u0120association": 5864,
"\u0120digital": 5865,
"\u0120occurred": 5866,
"\u0120analyzed": 5867,
"\u0120denied": 5868,
"\u0120surgery": 5869,
"\u0120families": 5870,
"\u0120operations": 5871,
"Then": 5872,
"dden": 5873,
"\u0120Wil": 5874,
"\u0120healthy": 5875,
"\u0120affected": 5876,
"\u0120holding": 5877,
"\u0120mix": 5878,
"\u0109\u0109\u0109\u0109": 5879,
"\u0120cycle": 5880,
"edom": 5881,
"\u0120firm": 5882,
"CM": 5883,
"\u0120minor": 5884,
"\u0120rul": 5885,
"\u0120relation": 5886,
"\u0120Sup": 5887,
"\u0120encour": 5888,
"\u0120composition": 5889,
"\u0120warm": 5890,
"\u00e3\u0123\u0139": 5891,
"Exp": 5892,
"\u0120animal": 5893,
"zon": 5894,
"itis": 5895,
"riage": 5896,
"\u0120tempor": 5897,
"\u0120\u00ce\u00b1": 5898,
"\u0120traditional": 5899,
"\u0120cardi": 5900,
"\u0120Group": 5901,
"pc": 5902,
"check": 5903,
"izations": 5904,
"coh": 5905,
"actor": 5906,
"\u0120offered": 5907,
"\u0120officer": 5908,
"\u0120opening": 5909,
"\u012034": 5910,
"elled": 5911,
"\u0120probability": 5912,
"\u0120whatever": 5913,
"kin": 5914,
"CO": 5915,
"arp": 5916,
"\u0120symptoms": 5917,
"\u0120gal": 5918,
"\u0120efficient": 5919,
"\u0120frag": 5920,
"\u0120correlation": 5921,
"\u012033": 5922,
"\u0120instr": 5923,
"itled": 5924,
"fected": 5925,
"\u0120drop": 5926,
"\u0120minimum": 5927,
"\u0120absence": 5928,
".*": 5929,
"ignment": 5930,
"\u0120chain": 5931,
"}}{": 5932,
"\u0120algorithm": 5933,
"istory": 5934,
"\u0120TO": 5935,
"\u0120suggests": 5936,
"\u0120chrom": 5937,
"\u0120husband": 5938,
"\u0120distributed": 5939,
"\u0120una": 5940,
"\u00e5\u0131": 5941,
"DS": 5942,
"gs": 5943,
"\u0120corpor": 5944,
"ander": 5945,
"iat": 5946,
"\u0120cir": 5947,
"\u0120society": 5948,
"Event": 5949,
"\u0120recorded": 5950,
"\u0120trig": 5951,
"\u0120Found": 5952,
"inity": 5953,
"antly": 5954,
"\u0120discussion": 5955,
"\u0120comfort": 5956,
"resents": 5957,
"\u0120rank": 5958,
"\u00e6\u013e": 5959,
"}-": 5960,
"\u0120bone": 5961,
"\u0120biggest": 5962,
"\u0120judge": 5963,
"PO": 5964,
"\u0120hol": 5965,
"\u0120entered": 5966,
"house": 5967,
"\u0120spirit": 5968,
"rich": 5969,
"ologies": 5970,
"\u0120classes": 5971,
"\u0120herself": 5972,
"ya": 5973,
"\u0120student": 5974,
"\u0120conver": 5975,
"\u012042": 5976,
"&\\": 5977,
"\u0120generation": 5978,
"\u0120Mal": 5979,
"\u0120\u0120\u0120\u0120\u0120\u0120\u0120\u0120\u0120\u0120\u0120\u0120\u0120\u0120\u0120\u0120\u0120\u0120\u0120\u0120\u0120\u0120\u0120\u0120\u0120\u0120\u0120\u0120\u0120\u0120\u0120\u0120\u0120\u0120\u0120\u0120\u0120\u0120\u0120\u0120\u0120\u0120\u0120\u0120\u0120\u0120\u0120\u0120\u0120\u0120\u0120\u0120\u0120\u0120\u0120\u0120": 5980,
"\u0120format": 5981,
"\u0120sudden": 5982,
"'.": 5983,
"allel": 5984,
"ki": 5985,
"\u0120Board": 5986,
"\u0120https": 5987,
"\u0120breast": 5988,
"\u0120circumstances": 5989,
"GL": 5990,
"\u00c3\u0142": 5991,
"det": 5992,
"BL": 5993,
"prime": 5994,
"\u0120symb": 5995,
"post": 5996,
"\u0120causes": 5997,
"\u0120estimated": 5998,
"\u0120situ": 5999,
"\u0120Every": 6000,
"\u0120script": 6001,
"oz": 6002,
"\u0120organization": 6003,
"\u0120Test": 6004,
"\u0120fra": 6005,
"^\u00e2\u012a\u0134": 6006,
"\u0120bill": 6007,
"\u0120eat": 6008,
"\u0120faith": 6009,
"\u0120summary": 6010,
"ymph": 6011,
"\u0120derived": 6012,
"poses": 6013,
"Act": 6014,
"\u0120repeated": 6015,
"\u0120handle": 6016,
"sem": 6017,
"\u0120Ke": 6018,
".**": 6019,
"());": 6020,
"\u0120income": 6021,
"\u0120Bank": 6022,
"\u0120Supp": 6023,
"\u0120external": 6024,
"alysis": 6025,
"\u0120bow": 6026,
"\u00c3\u0139": 6027,
"UE": 6028,
"\u0120Ben": 6029,
"uffer": 6030,
"\u0120efforts": 6031,
"\u0120smooth": 6032,
"thon": 6033,
"\u0120intended": 6034,
"ione": 6035,
"\u0120joint": 6036,
"\u0120Air": 6037,
"']": 6038,
"\u0120Cam": 6039,
"subset": 6040,
"\u0120conventional": 6041,
"otyp": 6042,
"\u0120Plaintiff": 6043,
"\u0120volt": 6044,
"ror": 6045,
"\u0120noise": 6046,
"\u0120Ca": 6047,
"\u0120((": 6048,
"\u0120Why": 6049,
"while": 6050,
"iable": 6051,
"Per": 6052,
"\u0120Super": 6053,
"\u0120rise": 6054,
"\u0120protection": 6055,
"lands": 6056,
"\u0120knows": 6057,
"gin": 6058,
"umin": 6059,
"Index": 6060,
"\u0120Over": 6061,
"olar": 6062,
"\u0120cryst": 6063,
"\u0120resolution": 6064,
"Phi": 6065,
"\u010a\u010a\u0120\u0120\u0120\u0120\u0120\u0120\u0120\u0120\u0120\u0120\u0120": 6066,
"Our": 6067,
"\u0120guys": 6068,
"\u0120nuclear": 6069,
"\u0120extent": 6070,
"content": 6071,
"Cs": 6072,
"ivo": 6073,
"Info": 6074,
"Ser": 6075,
"\u0120cele": 6076,
"illa": 6077,
"\u0120\u00c5": 6078,
"\u0120dry": 6079,
"Some": 6080,
"izer": 6081,
"object": 6082,
"\u0120agents": 6083,
"cknow": 6084,
"\u0120enzym": 6085,
"\u0120George": 6086,
"\\|": 6087,
"\u00e3\u0123\u00a8": 6088,
"\u0120Well": 6089,
"esis": 6090,
"sf": 6091,
"}}}": 6092,
"ushed": 6093,
"\u0120behavi": 6094,
"\u0120requirements": 6095,
"\u0120shared": 6096,
"\u00e2\u0122\u00b2": 6097,
":**": 6098,
"\u0120\u00d0\u00be": 6099,
"\u0120Lou": 6100,
"\u0120Any": 6101,
"\u0120Such": 6102,
"\u0120strugg": 6103,
"Sp": 6104,
"\u0120church": 6105,
"ivery": 6106,
"\u0120covered": 6107,
"\u0120leaving": 6108,
"\u0120mobile": 6109,
"\u0120interested": 6110,
"irty": 6111,
"\u0120Texas": 6112,
"cs": 6113,
"\u0120stars": 6114,
"\u0120Green": 6115,
"Rec": 6116,
"ERS": 6117,
"ners": 6118,
"\u0120kit": 6119,
"\u0120diagnosis": 6120,
"burg": 6121,
"\u0120daughter": 6122,
"\u00e0\u00a5": 6123,
"Code": 6124,
"\u0120represents": 6125,
"\u0120stre": 6126,
"\u0120patterns": 6127,
"\u0120responses": 6128,
"\u0120Di": 6129,
"greg": 6130,
"\u0120offers": 6131,
"\u0120election": 6132,
"ilit": 6133,
"eless": 6134,
"\u0120doll": 6135,
"isted": 6136,
"\u0120decreased": 6137,
"\u0120announced": 6138,
"\u0120implic": 6139,
"Pr": 6140,
"\u0120///": 6141,
"\u0120reb": 6142,
"apers": 6143,
"\u0120Canada": 6144,
"acebook": 6145,
"\u0120north": 6146,
"yr": 6147,
"van": 6148,
"\u0120earth": 6149,
"\u0120sea": 6150,
"rees": 6151,
"\u0120credit": 6152,
"\u0120creating": 6153,
"------------------------------------------------": 6154,
"Config": 6155,
"va": 6156,
"\u01202004": 6157,
"\u0120latter": 6158,
"BI": 6159,
"specific": 6160,
"\u0120coe": 6161,
"\u0120Port": 6162,
"cks": 6163,
"\u0120anc": 6164,
"kappa": 6165,
"\u0120Under": 6166,
"\u0120regist": 6167,
"het": 6168,
"ville": 6169,
"night": 6170,
"\u0120employees": 6171,
"block": 6172,
"terest": 6173,
"\u0120arms": 6174,
"While": 6175,
"\u0120Germany": 6176,
")?": 6177,
"\u0120dose": 6178,
"\u0120waiting": 6179,
"Field": 6180,
"\u0120France": 6181,
"rape": 6182,
"\u0120manif": 6183,
"\u0120download": 6184,
"mic": 6185,
"\u0120supply": 6186,
"\u00c3\u00ba": 6187,
"oom": 6188,
"Trans": 6189,
"mbox": 6190,
"\u0120mes": 6191,
"\u0120Ill": 6192,
"\u0120Ber": 6193,
"\u0120train": 6194,
"\u0120lit": 6195,
"\u0120diet": 6196,
"\u0120sentence": 6197,
"phone": 6198,
"Sigma": 6199,
"\u0120scene": 6200,
"\u0120Sur": 6201,
"\u0120DE": 6202,
"\u0120Lord": 6203,
"look": 6204,
"\u00d1\u0124\u00d0\u00be": 6205,
"\u0120testimony": 6206,
"\u0120crow": 6207,
"\u0120mouth": 6208,
"sens": 6209,
"\u0120wel": 6210,
"\u0120citiz": 6211,
"\u0120Smith": 6212,
"ometry": 6213,
"etes": 6214,
"\u0120ship": 6215,
"pled": 6216,
"GR": 6217,
"\u00e3\u0123\u0141": 6218,
"node": 6219,
"\u0120incorpor": 6220,
"\u0120contained": 6221,
"\u0120profile": 6222,
"~~~": 6223,
"\u0120sales": 6224,
"\u0120stood": 6225,
"cel": 6226,
"ilde": 6227,
"inder": 6228,
"MT": 6229,
"ras": 6230,
"iant": 6231,
"ansion": 6232,
"\u0120earn": 6233,
"\u00c2\u00bb": 6234,
"\u0120Rem": 6235,
"ulin": 6236,
"\u0120suff": 6237,
"\u00ef\u00bc\u012e": 6238,
"\u0120literature": 6239,
"\u0120adding": 6240,
"ilarly": 6241,
"\u0120existence": 6242,
"appe": 6243,
"\u0120plants": 6244,
"ameter": 6245,
"\u0120CR": 6246,
"\u01202019": 6247,
"\u0120symm": 6248,
"\u0120sust": 6249,
"\u00e2\u0122\u012c": 6250,
"\u0120officers": 6251,
"\u0120teac": 6252,
"\u0120largest": 6253,
"\u0120driver": 6254,
"\u0120mental": 6255,
"\u00c2\u00b7": 6256,
"**]{},": 6257,
"\u0120Day": 6258,
"current": 6259,
"\u0120analyses": 6260,
"\u00e3\u0123\u00a6": 6261,
"\u0120esc": 6262,
"_{{\\": 6263,
"\u0120commercial": 6264,
"\u0120authority": 6265,
"\u0120describe": 6266,
"''": 6267,
"\u0120std": 6268,
"\u0120Commun": 6269,
"\u0120Tom": 6270,
"\u0120--------": 6271,
"\u0120Are": 6272,
"\u0120vote": 6273,
"nonumber": 6274,
"last": 6275,
"\u0120driving": 6276,
"\u0120Michael": 6277,
"\u0120square": 6278,
"\u0120Yes": 6279,
"\u0120\u00e0\u00a4": 6280,
"\u0120stories": 6281,
"\u0120Out": 6282,
"\u0120properly": 6283,
"\u0120interests": 6284,
"hr": 6285,
"sible": 6286,
"\u0120loop": 6287,
"Hand": 6288,
"\u0120referred": 6289,
"\u0120bes": 6290,
"bert": 6291,
"nam": 6292,
"\u0120thread": 6293,
"\u0120shut": 6294,
"\u0120Both": 6295,
"\u0120indeed": 6296,
"\u0120mechanisms": 6297,
"\u0120signals": 6298,
"\u0120concentrations": 6299,
"Just": 6300,
"frame": 6301,
"\":\"": 6302,
"\u0120master": 6303,
"\u0120Del": 6304,
"\u0120fol": 6305,
"\u0120standing": 6306,
"\u0120Code": 6307,
"\u0120spot": 6308,
"just": 6309,
"\u0120catal": 6310,
"\u0120learned": 6311,
"\u0120completed": 6312,
"\u0120pure": 6313,
"\u0120epis": 6314,
"\u0120carbon": 6315,
"stract": 6316,
"\u0120News": 6317,
"\u0120quantum": 6318,
"\u00c2\u0143": 6319,
"normal": 6320,
"run": 6321,
"\u0120transmission": 6322,
"\u0120latest": 6323,
"range": 6324,
"\u0120empty": 6325,
"\u0120supposed": 6326,
"BA": 6327,
"YS": 6328,
"MO": 6329,
"\u0120peace": 6330,
"\u0120stopped": 6331,
"\u0120errors": 6332,
"\u0120module": 6333,
".[@": 6334,
"\u0120library": 6335,
"\u00c3\u0143a": 6336,
"\u0120ran": 6337,
"\u0120officials": 6338,
"stein": 6339,
"uate": 6340,
"\u0120measurements": 6341,
"front": 6342,
"write": 6343,
"\u00e3\u0123\u00a7": 6344,
"\u0120breath": 6345,
"\u0120neighbor": 6346,
"\u0120Second": 6347,
"abla": 6348,
"\u0120importance": 6349,
"QL": 6350,
"\u0120gain": 6351,
"olf": 6352,
"\u0120particles": 6353,
"\u0120Eq": 6354,
"\u0120interactions": 6355,
"ih": 6356,
"ca": 6357,
"ias": 6358,
"\u0120Western": 6359,
"outhern": 6360,
"opic": 6361,
"ja": 6362,
"\u0120pool": 6363,
"ears": 6364,
"\u0120Met": 6365,
"ERT": 6366,
"induced": 6367,
"edy": 6368,
"NT": 6369,
"num": 6370,
"\u0120wire": 6371,
"ptions": 6372,
"\u0120apprec": 6373,
"\u0120elim": 6374,
"rog": 6375,
"\u0120remained": 6376,
"page": 6377,
"\u0120purposes": 6378,
"\u0120decrease": 6379,
"\u0120genetic": 6380,
"\u0120insp": 6381,
"\u0120polic": 6382,
"\u0120customers": 6383,
"\u0120membrane": 6384,
"\u0120mir": 6385,
"\u0120ahead": 6386,
"\u0120possibility": 6387,
"\u0120involve": 6388,
"\u0120farm": 6389,
"ipped": 6390,
"\u0120buffer": 6391,
"\u0120CO": 6392,
"\u0120Mary": 6393,
"{{": 6394,
"(&": 6395,
"\u0120jurisd": 6396,
"\u0120Mat": 6397,
"\u0120Union": 6398,
"\u0120nan": 6399,
"\u0120lung": 6400,
"\u0120/**": 6401,
"MI": 6402,
"\u0120aren": 6403,
"amily": 6404,
"\u0120conserv": 6405,
"\u0120street": 6406,
"First": 6407,
"\u0120During": 6408,
"\u0120button": 6409,
"ariant": 6410,
"\u0120appar": 6411,
"\u0120Church": 6412,
"\u0120Supreme": 6413,
"\u0120remainder": 6414,
"\u0120plane": 6415,
"\u0120Christian": 6416,
"roller": 6417,
"\u00e3\u0123\u00af": 6418,
"ishes": 6419,
"\u0120south": 6420,
"dy": 6421,
"\u0120powerful": 6422,
"\u0120director": 6423,
"\u0120criminal": 6424,
"\u0120equivalent": 6425,
"ker": 6426,
"\u0120attract": 6427,
"==========": 6428,
"\u0120ma": 6429,
"\u0120sequences": 6430,
"\u0120exchange": 6431,
"Pe": 6432,
"icians": 6433,
"url": 6434,
"GG": 6435,
"However": 6436,
"\u0120receptor": 6437,
"after": 6438,
"\u0120Techn": 6439,
"\u0120movie": 6440,
"mem": 6441,
"\u0120PD": 6442,
"core": 6443,
"\u0120arbit": 6444,
"\u0120Jes": 6445,
"\u0120ing": 6446,
"\u0120uniform": 6447,
"born": 6448,
"\u00e3\u0124\u0134": 6449,
"\u00ce\u00af": 6450,
"ani": 6451,
"\u0120conclusion": 6452,
"RS": 6453,
"\u0120outcome": 6454,
"\u0120convert": 6455,
"\u0120Council": 6456,
"\u00c3\u00a2": 6457,
"lif": 6458,
"\u0120greatest": 6459,
"iveness": 6460,
"onday": 6461,
"oyal": 6462,
"\u00d9\u012c": 6463,
"ora": 6464,
"uries": 6465,
"cence": 6466,
"\u0120\u00d0\u00ba": 6467,
"\u0120haven": 6468,
"\u01202003": 6469,
"\u0120Sal": 6470,
"rect": 6471,
"aming": 6472,
"aneous": 6473,
"\u0120stable": 6474,
"ader": 6475,
"\\!": 6476,
"ructions": 6477,
"\u0120elev": 6478,
"\u0120brow": 6479,
"\u012038": 6480,
"win": 6481,
"\u0120hypothes": 6482,
"\u0120cas": 6483,
"antic": 6484,
"\u0120expert": 6485,
"\u0120finite": 6486,
"\u0120Company": 6487,
"\u0120electron": 6488,
"\u0120identity": 6489,
"\u0120III": 6490,
"\u0120People": 6491,
"\u0120indicates": 6492,
"\u0120projects": 6493,
"\u0120billion": 6494,
"\u0120Great": 6495,
"Americ": 6496,
"\u0120fell": 6497,
"\u0120operating": 6498,
"jected": 6499,
"\u0120equipment": 6500,
"\u0120gonna": 6501,
"\u0120enem": 6502,
"\u0120insurance": 6503,
"Inter": 6504,
"\u0120leaves": 6505,
"Yeah": 6506,
"\u0120flat": 6507,
"\u0120extended": 6508,
"\u0120categ": 6509,
"\u0120origin": 6510,
"faces": 6511,
"\u0120Bel": 6512,
"\u0120bra": 6513,
"\u0120fluid": 6514,
"\u0120Stat": 6515,
"\u0120Institute": 6516,
"\u0120exception": 6517,
"\u0120helped": 6518,
"\u0120speech": 6519,
"\u0120flex": 6520,
"\u0120mouse": 6521,
"\u0120(!": 6522,
"\u0120seeing": 6523,
"\u0120eventually": 6524,
"anges": 6525,
"nabla": 6526,
"IO": 6527,
"\u0120Addition": 6528,
"aine": 6529,
"\u010a\u010a\u0120\u0120\u0120\u0120\u0120\u0120": 6530,
"\u0120pour": 6531,
"\u0120plasma": 6532,
"agen": 6533,
"\u00d9\u012a": 6534,
"md": 6535,
"\u0120dra": 6536,
"\u0120controlled": 6537,
"sole": 6538,
"\u0120Alex": 6539,
"onald": 6540,
"KE": 6541,
"Array": 6542,
"ampions": 6543,
"\u0120appoint": 6544,
"stood": 6545,
"\u0120emot": 6546,
"cluding": 6547,
"\u0120returns": 6548,
"real": 6549,
"\u0120Class": 6550,
"\u0120neuro": 6551,
"\u0120excell": 6552,
"draw": 6553,
"rer": 6554,
"eric": 6555,
"\u0120holds": 6556,
"\u0120------------": 6557,
"\u0120maintain": 6558,
"crib": 6559,
"Ne": 6560,
"\u0120secondary": 6561,
"\u0120diab": 6562,
"\u0120nav": 6563,
"\u0120\u00d0\u00b4": 6564,
"ords": 6565,
"\u0120believed": 6566,
",-": 6567,
"\u0120camera": 6568,
"\u0120happens": 6569,
"ATION": 6570,
"\u0120mostly": 6571,
"\u0120Tra": 6572,
"Color": 6573,
"\u0120miles": 6574,
"ando": 6575,
"\u0120apparatus": 6576,
"ND": 6577,
"\u0120diseases": 6578,
"asks": 6579,
"})$": 6580,
"\u0120virus": 6581,
"\u0120CA": 6582,
"\u0120confirm": 6583,
"vi": 6584,
"\u01202001": 6585,
"Image": 6586,
"RL": 6587,
"\u0120Kore": 6588,
"\u0120AL": 6589,
"\u0120films": 6590,
"nce": 6591,
"\u00c3\u00b6r": 6592,
"\u0120forth": 6593,
"ads": 6594,
"rie": 6595,
"\u010a\u0120\u0120\u0120\u0120\u0120\u0120\u0120\u0120\u0120\u0120\u0120\u0120\u0120\u0120\u0120\u0120\u0120\u0120\u0120\u0120\u0120\u0120\u0120\u0120\u0120\u0120\u0120": 6596,
"anes": 6597,
"\u00e2\u0122\u013f.": 6598,
"icrosoft": 6599,
"\u0120aware": 6600,
"Att": 6601,
"/\\": 6602,
"NE": 6603,
"\u0120join": 6604,
"\u0120substrate": 6605,
"rive": 6606,
"\u0120represented": 6607,
"opyright": 6608,
"orders": 6609,
"\u0120Finally": 6610,
"typ": 6611,
"\u0120reality": 6612,
"\u0120runs": 6613,
"mittee": 6614,
"\u0120celebr": 6615,
"\u0120muscle": 6616,
"\u0120crime": 6617,
"\u0120Set": 6618,
"\u0120relief": 6619,
"2015": 6620,
"\u00c3\u00b1": 6621,
"2013": 6622,
"Fl": 6623,
"\",\"": 6624,
"\u0120Rob": 6625,
"iller": 6626,
"\u0120bright": 6627,
"ses": 6628,
"\u0120schools": 6629,
"\u0120survey": 6630,
"\u0120Service": 6631,
"\u0120pregn": 6632,
"reate": 6633,
"\u0120occurs": 6634,
"\u0120generate": 6635,
"\u0120charged": 6636,
"\u0120spectrum": 6637,
"xture": 6638,
"lets": 6639,
"\u0120NS": 6640,
"\u0120veloc": 6641,
"\u0120estimate": 6642,
"}+": 6643,
"plify": 6644,
"\u0120statute": 6645,
"ello": 6646,
"\u0120AR": 6647,
"Map": 6648,
"())": 6649,
"gebra": 6650,
"\u0120FOR": 6651,
"\u0120lov": 6652,
"aper": 6653,
"\u0120balance": 6654,
"ests": 6655,
"arian": 6656,
"\u0120leader": 6657,
"\u0120serum": 6658,
"________________": 6659,
"]),": 6660,
"\u0120configuration": 6661,
"\u0120fundament": 6662,
"PH": 6663,
"orthern": 6664,
"ync": 6665,
"ithub": 6666,
"\u0120examples": 6667,
"iliar": 6668,
"TC": 6669,
"\u0120digit": 6670,
"\u0120teams": 6671,
"care": 6672,
"\u0120mel": 6673,
"matrix": 6674,
"########": 6675,
"\u0120Many": 6676,
"ln": 6677,
"sa": 6678,
"ogene": 6679,
"\u0120battle": 6680,
"mas": 6681,
"api": 6682,
"ye": 6683,
"\u0120developing": 6684,
"\u0120extremely": 6685,
"\u00e3\u0123\u00aa": 6686,
"\u0120diag": 6687,
"istent": 6688,
"she": 6689,
"ialog": 6690,
"\u0120Mex": 6691,
"\u0120Japanese": 6692,
"Any": 6693,
"\u0120Vir": 6694,
"\u0120morph": 6695,
"\u0120Hall": 6696,
"actory": 6697,
"\u0120journal": 6698,
"\u0120finished": 6699,
"\u0120Mem": 6700,
"\u0120thanks": 6701,
"arden": 6702,
"\u0120inner": 6703,
"\u0120signed": 6704,
"\u012064": 6705,
"\u0120af": 6706,
"\u0120Read": 6707,
"itory": 6708,
"istor": 6709,
"ammat": 6710,
"ocy": 6711,
"weight": 6712,
"crete": 6713,
"\u0120excess": 6714,
"\u00d1\u0127": 6715,
"itative": 6716,
"Ass": 6717,
"\u0120voltage": 6718,
"eles": 6719,
"abilities": 6720,
"DL": 6721,
"\u0120chronic": 6722,
"Are": 6723,
"\u0120Ret": 6724,
"\u0120SE": 6725,
"\u0120forced": 6726,
"\u0120tro": 6727,
"\u0120liver": 6728,
"\u0120Obama": 6729,
"\u0120examined": 6730,
"iler": 6731,
"nbsp": 6732,
"\u0120efficiency": 6733,
"\u0120()": 6734,
"\u0120debt": 6735,
"ena": 6736,
"omorph": 6737,
"\u0120sho": 6738,
"FC": 6739,
"\u0120src": 6740,
"ilder": 6741,
"\u0120delivery": 6742,
"\u0120Franc": 6743,
"Dis": 6744,
"\u0120Facebook": 6745,
"\u0120gar": 6746,
"\u0120neither": 6747,
"ading": 6748,
"\u0120ice": 6749,
"\"></": 6750,
"\u0120prosec": 6751,
"\u01202002": 6752,
"\u0120auto": 6753,
"\u00d0\u00b0\u00d0\u00bd": 6754,
"2012": 6755,
"source": 6756,
"\u0120agency": 6757,
"\u0120Which": 6758,
"2014": 6759,
"\u0120evaluated": 6760,
"ortunately": 6761,
"\u0120Calculate": 6762,
"\u0120thousands": 6763,
"FR": 6764,
"\u00e5\u012a": 6765,
"FI": 6766,
"widet": 6767,
"dots": 6768,
"\u0120colon": 6769,
"alian": 6770,
"amine": 6771,
"appro": 6772,
"\u0120fish": 6773,
"\u0120subsequent": 6774,
"rivate": 6775,
"\u0120cycl": 6776,
"\u0120chosen": 6777,
"\u0120Phil": 6778,
"\u0120representation": 6779,
"\u0120highlight": 6780,
"\u0120-->": 6781,
"\u0120adult": 6782,
"\u0120500": 6783,
"MR": 6784,
"imb": 6785,
"\u0120achieved": 6786,
"ifications": 6787,
"\").": 6788,
"\u0120calling": 6789,
"local": 6790,
"May": 6791,
"rehen": 6792,
"\u0120rich": 6793,
"\u0120Friday": 6794,
"small": 6795,
"widetilde": 6796,
"\u0120deg": 6797,
"\u0120Judge": 6798,
"\u0120desired": 6799,
"Log": 6800,
"\u0120alcoh": 6801,
"Rep": 6802,
"\u0120assessment": 6803,
"\u0120mixed": 6804,
"\u0120architect": 6805,
"\u0120\u00c3\u0139": 6806,
"\u0120Foundation": 6807,
"\u0120issued": 6808,
"\u0120tag": 6809,
"\u0120\u00d7": 6810,
"ti": 6811,
"Ste": 6812,
"\u0120Mag": 6813,
"\u0120measurement": 6814,
"\u0120nic": 6815,
"ancing": 6816,
"\u0120Circuit": 6817,
"\u0120twenty": 6818,
"omes": 6819,
"dependent": 6820,
"\u0120spl": 6821,
"\u0120College": 6822,
"ashion": 6823,
"\u0120});": 6824,
"Request": 6825,
"Go": 6826,
"\u0120Mrs": 6827,
"\u0120directed": 6828,
"\u00e1\u00bb": 6829,
"\u0120possibly": 6830,
"\u0120college": 6831,
"\u0120substantial": 6832,
"\u0120manufacture": 6833,
"\u0120attorney": 6834,
"\u0120intellig": 6835,
"ola": 6836,
"cup": 6837,
"\u0120girls": 6838,
"inst": 6839,
"aked": 6840,
"\u00c3\u00a4n": 6841,
"reshold": 6842,
"\u0120explicit": 6843,
")\"": 6844,
"\u0120Vol": 6845,
"-------": 6846,
"\u0120tox": 6847,
"\u0120paint": 6848,
"\u0120views": 6849,
"isher": 6850,
"fee": 6851,
"\u0120Div": 6852,
"etric": 6853,
"utor": 6854,
"fa": 6855,
"oking": 6856,
"icated": 6857,
"\u0120baby": 6858,
"osa": 6859,
"\u0120intent": 6860,
"\u0120amb": 6861,
"**(-": 6862,
"\u0120tight": 6863,
"\u0120depth": 6864,
"\u0120Time": 6865,
"\u0120criteria": 6866,
"\u0120typical": 6867,
"\u0120sin": 6868,
"Co": 6869,
"result": 6870,
"\u0120iron": 6871,
"These": 6872,
"XX": 6873,
"\u0120session": 6874,
"\u0120Science": 6875,
"ician": 6876,
"=======": 6877,
"Count": 6878,
"\u012075": 6879,
"\u0120extension": 6880,
"jud": 6881,
"\u0120cond": 6882,
"\u0120receiving": 6883,
"\u0120League": 6884,
"\u0120protected": 6885,
"\u010a\u010a\u0109": 6886,
"\u0120positions": 6887,
"\u0120discovered": 6888,
"\u0120vary": 6889,
"\u0120changing": 6890,
"\u0120narrow": 6891,
"Che": 6892,
"\u0120Frank": 6893,
"ipher": 6894,
"\u0120heter": 6895,
"pack": 6896,
"\u0120Na": 6897,
"\u0120filled": 6898,
"\u0120Theorem": 6899,
"\u00d8\u00b1": 6900,
"TS": 6901,
"riend": 6902,
"101": 6903,
")[": 6904,
"IST": 6905,
"\u0120thin": 6906,
"\u0120angle": 6907,
"\u0120MA": 6908,
"\u0120destroy": 6909,
"Node": 6910,
"\u0120Robert": 6911,
"\u0120Bay": 6912,
"\u0120nod": 6913,
"2000": 6914,
"\u0120Using": 6915,
"\u00e5\u00ae": 6916,
"mt": 6917,
"ygen": 6918,
"\u0120fraction": 6919,
"GB": 6920,
"\\{": 6921,
"}}_{": 6922,
"\u0120jump": 6923,
"standing": 6924,
"\u0120pert": 6925,
"\u0120Sunday": 6926,
"\u0120easier": 6927,
"\u0120networks": 6928,
"acle": 6929,
"/**": 6930,
"\u012039": 6931,
"ostic": 6932,
"teen": 6933,
"osh": 6934,
"\u0120Lem": 6935,
"\u0120skills": 6936,
"law": 6937,
"\u0120environmental": 6938,
"\u0120Mil": 6939,
"\u0120lived": 6940,
"\u0120allowing": 6941,
"Method": 6942,
"\u0120Bi": 6943,
"\u0120underlying": 6944,
"\u0120alt": 6945,
"\u0120lymph": 6946,
"\u0120spend": 6947,
"ashed": 6948,
"\u0120investigated": 6949,
"aren": 6950,
"\u0120chair": 6951,
"mes": 6952,
"create": 6953,
"ocytes": 6954,
"SM": 6955,
"\u0120Mo": 6956,
"\u00e3\u0123\u012e": 6957,
"Date": 6958,
")/(": 6959,
"\u0120ordered": 6960,
"2016": 6961,
"supplementary": 6962,
"\u0120king": 6963,
"duc": 6964,
"apped": 6965,
"\u0120shock": 6966,
"dimensional": 6967,
"uh": 6968,
"\u0120fab": 6969,
"\u0120curve": 6970,
"SU": 6971,
"mo": 6972,
"\u0120outcomes": 6973,
"\u0120scheme": 6974,
"\u0120Like": 6975,
"\u0120Australia": 6976,
"uce": 6977,
"\u0120univers": 6978,
"\u0120imaging": 6979,
"\u0120princip": 6980,
"\u0120assay": 6981,
"\u0120economy": 6982,
"\u0120recall": 6983,
"\u0120Mad": 6984,
"\u0120tub": 6985,
"default": 6986,
"\u0120une": 6987,
"itely": 6988,
"User": 6989,
"\u0120alter": 6990,
"ceived": 6991,
"rid": 6992,
"\u0120acts": 6993,
"\u0120polar": 6994,
"\u0120Ins": 6995,
"\u00e3\u0125\u00bc": 6996,
"\u0120acknow": 6997,
"Group": 6998,
"$(": 6999,
"\u0120detailed": 7000,
"\u0120amaz": 7001,
"\u0120fourth": 7002,
"child": 7003,
"\u0120asking": 7004,
"\u0120om": 7005,
"\u0120compounds": 7006,
"\u0120integer": 7007,
"Equ": 7008,
"\u0120Pen": 7009,
"$$\\": 7010,
"\u0120isolated": 7011,
"\u0120approved": 7012,
"\u0120emph": 7013,
"\u00c3\u00a7\u00c3\u00a3o": 7014,
"\u0120chief": 7015,
"\u0120sorry": 7016,
"\u0120minute": 7017,
"\u0120sup": 7018,
"\u0120twice": 7019,
"\u0120ton": 7020,
"\u0120Party": 7021,
"eding": 7022,
"aturday": 7023,
"\u0120depends": 7024,
"icted": 7025,
"\u0120immune": 7026,
"\u0120lie": 7027,
"\u0120married": 7028,
"\u00d0\u00b5\u00d1\u0122": 7029,
"ammatory": 7030,
"\u0120coverage": 7031,
"\u0120capable": 7032,
"\u0120relates": 7033,
"Aut": 7034,
"\u0120Que": 7035,
"\u0120conc": 7036,
"\u0120compens": 7037,
"\u0120leaders": 7038,
"\u0120Committee": 7039,
"-----": 7040,
"claim": 7041,
"ells": 7042,
"\u0120salt": 7043,
"\u0120sac": 7044,
"\u0120transcript": 7045,
"\u0120spat": 7046,
"Fil": 7047,
"\u0120appellant": 7048,
"\u0120tick": 7049,
"Element": 7050,
"\u0120electronic": 7051,
"\u0120strongly": 7052,
"first": 7053,
"break": 7054,
"\u0120Tur": 7055,
"\u00e5\u0127": 7056,
"\u0120Ma": 7057,
"TO": 7058,
"annels": 7059,
"\u0120smart": 7060,
"\u0120Hill": 7061,
"\u0120vacc": 7062,
"\u0120sitting": 7063,
"dt": 7064,
"\u00d0\u00b0\u00d1\u0124": 7065,
"\u0120Web": 7066,
"ito": 7067,
"iner": 7068,
"\u0120Sum": 7069,
"ipl": 7070,
"\u0120defect": 7071,
"\u00ce\u00b3": 7072,
"FP": 7073,
"\u0120batter": 7074,
"\u0120terror": 7075,
"mand": 7076,
"asy": 7077,
"--------------------------------------------------------------------------------------------------------------------------------": 7078,
"\u0120+=": 7079,
"ala": 7080,
"\u0120possess": 7081,
"][": 7082,
"cr": 7083,
"SL": 7084,
"\u0120hell": 7085,
"]--": 7086,
"\u0120Nor": 7087,
"\u0120Good": 7088,
"\u0120decisions": 7089,
"\u00c4\u012f": 7090,
"\u0120employed": 7091,
"\u0120implementation": 7092,
"Your": 7093,
"\u0120entirely": 7094,
"okes": 7095,
"xe": 7096,
"inations": 7097,
"\u0120gra": 7098,
"\u0120Hen": 7099,
"press": 7100,
"\u0120marked": 7101,
"\u0120guide": 7102,
"\u0120evaluation": 7103,
"Model": 7104,
"operative": 7105,
"\u0120focused": 7106,
"\u0120quiet": 7107,
"\u0120Americans": 7108,
"tex": 7109,
"has": 7110,
"\u00e4\u00bd": 7111,
"ido": 7112,
"\u0120d\u00c3\u00a9": 7113,
"\u0120tens": 7114,
"\u0120Association": 7115,
"itable": 7116,
"\u0120listed": 7117,
"\u0120sections": 7118,
"\u0120incident": 7119,
"\u0120plays": 7120,
"\u0120River": 7121,
"\u0120god": 7122,
"\u0120sides": 7123,
"\u0120gluc": 7124,
"\u0120arguments": 7125,
"\u0120excellent": 7126,
"\u012044": 7127,
"itud": 7128,
"\"}.": 7129,
"According": 7130,
"uesday": 7131,
"2017": 7132,
"\u0120intensity": 7133,
"\u0120discrim": 7134,
"select": 7135,
"\u00cf\u012e": 7136,
"\u0120traffic": 7137,
"\u0120brand": 7138,
"\u0120trees": 7139,
"\u0120category": 7140,
"\u0120stored": 7141,
"CI": 7142,
"\u0120duty": 7143,
"\u0120gly": 7144,
"\u0120corner": 7145,
"Click": 7146,
"\u0120versus": 7147,
"\u0120explan": 7148,
"\u00e3\u0123\u013b": 7149,
"\u0120quarter": 7150,
"ket": 7151,
"doc": 7152,
"\u0120Leg": 7153,
"\u0120broken": 7154,
"\u0120percentage": 7155,
"\u0120dream": 7156,
"unc": 7157,
"\u0120accord": 7158,
"\u0120defendants": 7159,
"\u0120Their": 7160,
"Where": 7161,
"\u0120confidence": 7162,
"\u0120nom": 7163,
"\u0120raise": 7164,
"}.": 7165,
"\u0120ju": 7166,
"\u0120SN": 7167,
"\u0120lose": 7168,
"\u0120granted": 7169,
"\u0120advance": 7170,
"\u0120beat": 7171,
"oday": 7172,
"iot": 7173,
"006": 7174,
"\u0120forg": 7175,
"ITH": 7176,
"\u0120documents": 7177,
"\u0120pathway": 7178,
"\u00d0\u00bf": 7179,
"\u0120tables": 7180,
"\u0120obser": 7181,
")=\\": 7182,
"\u00e1\u0122": 7183,
"wed": 7184,
"\u0120freedom": 7185,
"gression": 7186,
"bal": 7187,
"\u0120Ver": 7188,
"\u0120incub": 7189,
"cial": 7190,
"\u0120Form": 7191,
"\u0120understood": 7192,
"ailed": 7193,
"\u0120mainly": 7194,
"\u0120Thomas": 7195,
"\u0120&=": 7196,
"\u0120worse": 7197,
"\u0120Fin": 7198,
"2010": 7199,
"\u0120accuracy": 7200,
"\u0120${{\\": 7201,
"\u0120unknown": 7202,
"\u0120spring": 7203,
"\u0120jour": 7204,
"\u0120manager": 7205,
"\u0120oblig": 7206,
"\u0120philos": 7207,
"\u0120frequently": 7208,
"reek": 7209,
"valid": 7210,
"\u0120notes": 7211,
"\u0120formula": 7212,
"\u0120Wed": 7213,
"\u0120Only": 7214,
"agger": 7215,
"\u0120Monday": 7216,
"\u0120violence": 7217,
"\u0120metabol": 7218,
"\u0120planning": 7219,
"\u0120ER": 7220,
"\u0120minim": 7221,
"\u0120pas": 7222,
"\u0120pages": 7223,
"\u0120${": 7224,
"\u0120Book": 7225,
"\u00e1\u0125": 7226,
"\u0120rough": 7227,
"uls": 7228,
"xml": 7229,
"\u0120Flor": 7230,
"\u0120religious": 7231,
"kins": 7232,
"\u0120Brown": 7233,
"\u0120statements": 7234,
"\u0120ion": 7235,
"\u0120fuel": 7236,
"\u0120evening": 7237,
"\u0120egg": 7238,
"\u0120py": 7239,
"adow": 7240,
"\u0120protocol": 7241,
"\u0120abuse": 7242,
"\u0120Once": 7243,
"\u0120arrived": 7244,
"\u0120WH": 7245,
"AAAA": 7246,
"\u0120Russian": 7247,
"\u0120regulation": 7248,
"\u00e5\u00a4": 7249,
"ested": 7250,
"\u012065": 7251,
"\u0120William": 7252,
"\u0120seconds": 7253,
"]--[@": 7254,
"\u0120administr": 7255,
"\u00c3\u00b8": 7256,
"\u0120deliver": 7257,
"GC": 7258,
"\u0120procedures": 7259,
"\u0120charges": 7260,
"kl": 7261,
"oret": 7262,
"\u0120tor": 7263,
"\u0120guarant": 7264,
"main": 7265,
"\u0120pp": 7266,
"query": 7267,
"\u0120intervention": 7268,
"\u0120advanced": 7269,
"\u0120caught": 7270,
"else": 7271,
"amber": 7272,
"UD": 7273,
"\u0120approaches": 7274,
"\u0120tom": 7275,
"gers": 7276,
"\u0120compare": 7277,
"\u0120enhance": 7278,
"\u0120consult": 7279,
"github": 7280,
"\u0120cart": 7281,
"BP": 7282,
"GA": 7283,
"\u0120Gold": 7284,
"\u0120opposite": 7285,
"\u0120appearance": 7286,
"endif": 7287,
"\u012055": 7288,
"\u0120sale": 7289,
"venue": 7290,
"\u0120critic": 7291,
"roke": 7292,
"\u0120depending": 7293,
"}}^": 7294,
"\u0120Government": 7295,
"\u0120considering": 7296,
"\u00e7\u0136": 7297,
"icago": 7298,
"bid": 7299,
"anta": 7300,
"\u0120bool": 7301,
"\u0120owner": 7302,
"\u0120managed": 7303,
"Solve": 7304,
"acks": 7305,
"\u0120Cr": 7306,
"\u00c2\u00b6": 7307,
"\u010a\u0109\u0109\u0109\u0109\u0109": 7308,
"\u0120CI": 7309,
"OUT": 7310,
"gi": 7311,
"\u0120usual": 7312,
"\u0120observations": 7313,
"\u0120advert": 7314,
"\u0120television": 7315,
"\u0120query": 7316,
"cut": 7317,
"\u0120ca": 7318,
"\u0120seat": 7319,
"\u0120pulled": 7320,
"\u0120modified": 7321,
"gent": 7322,
"\u0120cort": 7323,
"\u0120competition": 7324,
"imately": 7325,
"\u00c5\u00a1": 7326,
"\u0120Field": 7327,
"\u0120stimul": 7328,
"\u0120exposed": 7329,
"2011": 7330,
"\u0120au": 7331,
"gt": 7332,
"sor": 7333,
"posed": 7334,
"\u0120Sl": 7335,
"\u0120Internet": 7336,
"oster": 7337,
"sect": 7338,
"\u0120illustr": 7339,
"\u0120sensitivity": 7340,
"dir": 7341,
"\u0120goals": 7342,
"\u0120accident": 7343,
"\u0120conflict": 7344,
"\u0120doctor": 7345,
"\u0120120": 7346,
"\u0120vess": 7347,
"utely": 7348,
"\u0120cos": 7349,
"\u0120concerns": 7350,
"\u0120bag": 7351,
"uy": 7352,
"\u0120sweet": 7353,
"\u0120consc": 7354,
"\u0120recovery": 7355,
"\u0120stick": 7356,
"\u0120till": 7357,
"\u0120accum": 7358,
"\u0120Ann": 7359,
"\u0120pod": 7360,
"\u0120ris": 7361,
"\u0120scr": 7362,
"\u0120scores": 7363,
"\u0120limitations": 7364,
"\u0120independ": 7365,
"edia": 7366,
"\u0120orders": 7367,
"\u0120cluster": 7368,
"\u0120resulted": 7369,
"\u0120analog": 7370,
"Which": 7371,
"\u0120strain": 7372,
"mi": 7373,
"\u0120alle": 7374,
"\u0120jobs": 7375,
"ursday": 7376,
"\u0120distingu": 7377,
"\u0120willing": 7378,
"\u0120UN": 7379,
"akers": 7380,
"ko": 7381,
"otten": 7382,
"ellular": 7383,
"\u0120assuming": 7384,
"enth": 7385,
"CF": 7386,
"\u0120ble": 7387,
"\u0120SD": 7388,
"estic": 7389,
"bour": 7390,
"olt": 7391,
"\u0120echo": 7392,
"\u0120rac": 7393,
"\u0120gate": 7394,
"\u0120Will": 7395,
"ORT": 7396,
"organ": 7397,
")}\\": 7398,
"istan": 7399,
"ITY": 7400,
"cretion": 7401,
"\u0120ended": 7402,
"\u0120CT": 7403,
"process": 7404,
";\\": 7405,
"\u0120Louis": 7406,
"\u0120experienced": 7407,
"\u0120trip": 7408,
"\u0120investigate": 7409,
"\u0120constitution": 7410,
"iral": 7411,
"\u0120AS": 7412,
"ifferent": 7413,
"MD": 7414,
")^{": 7415,
"\u0120joined": 7416,
"rip": 7417,
"\u0120numerous": 7418,
"\u0120apart": 7419,
"Pre": 7420,
"\u0120\u0120\u0120\u0120\u0120\u0120\u0120\u0120\u0120\u0120\u0120\u0120\u0120\u0120\u0120\u0120\u0120\u0120\u0120\u0120\u0120\u0120\u0120\u0120\u0120\u0120\u0120\u0120\u0120\u0120\u0120\u0120\u0120\u0120\u0120\u0120\u0120\u0120\u0120\u0120\u0120\u0120\u0120\u0120\u0120\u0120\u0120\u0120\u0120\u0120\u0120\u0120\u0120\u0120\u0120\u0120\u0120\u0120\u0120\u0120\u0120\u0120\u0120\u0120\u0120\u0120\u0120\u0120\u0120\u0120\u0120\u0120\u0120\u0120\u0120\u0120\u0120\u0120\u0120\u0120\u0120\u0120\u0120\u0120\u0120\u0120\u0120\u0120\u0120\u0120\u0120\u0120\u0120\u0120\u0120\u0120\u0120\u0120\u0120\u0120\u0120\u0120\u0120\u0120\u0120\u0120\u0120\u0120\u0120\u0120\u0120\u0120\u0120\u0120\u0120\u0120\u0120\u0120\u0120\u0120\u0120\u0120\u0120\u0120\u0120\u0120\u0120\u0120\u0120\u0120\u0120\u0120\u0120\u0120\u0120\u0120\u0120\u0120\u0120\u0120\u0120\u0120\u0120\u0120\u0120\u0120\u0120\u0120\u0120\u0120\u0120\u0120\u0120\u0120\u0120\u0120\u0120\u0120\u0120\u0120\u0120\u0120\u0120\u0120\u0120\u0120\u0120\u0120\u0120\u0120\u0120\u0120\u0120\u0120\u0120\u0120\u0120\u0120\u0120\u0120\u0120\u0120\u0120\u0120\u0120\u0120\u0120\u0120\u0120\u0120\u0120\u0120\u0120\u0120\u0120\u0120\u0120\u0120\u0120\u0120\u0120\u0120\u0120\u0120\u0120\u0120\u0120\u0120\u0120\u0120\u0120\u0120\u0120\u0120\u0120\u0120\u0120\u0120\u0120\u0120\u0120\u0120\u0120\u0120\u0120\u0120\u0120\u0120\u0120\u0120\u0120\u0120\u0120\u0120\u0120\u0120\u0120\u0120\u0120\u0120\u0120\u0120\u0120\u0120\u0120\u0120\u0120\u0120\u0120\u0120\u0120\u0120\u0120\u0120\u0120\u0120": 7421,
"\u0120Russia": 7422,
"\u0120hall": 7423,
"\u0120equations": 7424,
"\u0120dil": 7425,
"clusive": 7426,
"\u00d8\u00a7\u00d9\u0126": 7427,
"\u0120walked": 7428,
"\u0120entitled": 7429,
"rypt": 7430,
"\u0120candidate": 7431,
"sin": 7432,
"^+^": 7433,
"\u0120phenomen": 7434,
"\u0120fuck": 7435,
"height": 7436,
"\u0120pieces": 7437,
"imer": 7438,
"rapeut": 7439,
"\u0120researc": 7440,
"\u0120determination": 7441,
"\u0120orient": 7442,
"ilty": 7443,
"**]{}": 7444,
"\u0120ideal": 7445,
"\u0120replic": 7446,
"anda": 7447,
"/-": 7448,
"\u012000": 7449,
"\u0120push": 7450,
"olean": 7451,
"\u0120HIV": 7452,
"\u0120restaur": 7453,
"\u0120Office": 7454,
"bered": 7455,
"Service": 7456,
"\u0120nine": 7457,
"\u0120fans": 7458,
"oded": 7459,
"\u0120qui": 7460,
"then": 7461,
"\u0120grav": 7462,
"\u0120arter": 7463,
"\u0120Windows": 7464,
"\u0120standards": 7465,
"\u0120expansion": 7466,
"\u0120duration": 7467,
"uscript": 7468,
"\u0120300": 7469,
"\u0120suitable": 7470,
"\u0120purchase": 7471,
"\u0120evaluate": 7472,
"\u0120formal": 7473,
"Message": 7474,
"Gen": 7475,
"ateral": 7476,
"\u0120mine": 7477,
"\u0120recognized": 7478,
"\u0120impossible": 7479,
"ometric": 7480,
"_,": 7481,
"\u0120draft": 7482,
"only": 7483,
"\u0120plot": 7484,
"endment": 7485,
"\u0120\u00d0\u00bf\u00d1\u0122": 7486,
"\u0120watching": 7487,
"\u0120preval": 7488,
"\u0120Open": 7489,
"\u00cf\u012b": 7490,
"\u0120boot": 7491,
"\u0120hem": 7492,
"\u0120Scott": 7493,
"\u0120displ": 7494,
"\u0120oxid": 7495,
"\u0120guard": 7496,
"\u0120humans": 7497,
"Rev": 7498,
"\u0120FR": 7499,
"\u0120TR": 7500,
"\u0120warrant": 7501,
"nesday": 7502,
"\u0120virtual": 7503,
"External": 7504,
"\u0120bug": 7505,
"({": 7506,
"comple": 7507,
"\u00d0\u00b5\u00d1\u0124": 7508,
"product": 7509,
"Fe": 7510,
"\u0120Lu": 7511,
"\u0120photo": 7512,
"lik": 7513,
"\u0120concerned": 7514,
"\u0120assessed": 7515,
"\u0120luck": 7516,
"\u0120mission": 7517,
"\u0120Hel": 7518,
"CK": 7519,
"\u0120rare": 7520,
"\u00e2\u0122\u013f,": 7521,
"\u0120fill": 7522,
"war": 7523,
"\u0120{{\\": 7524,
"\u0120conclude": 7525,
"anning": 7526,
"scale": 7527,
"\u0120Bre": 7528,
"\u0120parallel": 7529,
"ugin": 7530,
"\u0120Africa": 7531,
"\u0120Mass": 7532,
"\u0120settings": 7533,
"\u0120biological": 7534,
"\u0120advice": 7535,
"Box": 7536,
"\u0120sand": 7537,
"GE": 7538,
"\u0120\u00c2\u00ab": 7539,
"iples": 7540,
"andon": 7541,
"Since": 7542,
"\u012047": 7543,
"\u01201999": 7544,
"iences": 7545,
"ulture": 7546,
"\"})": 7547,
"\u0120boundary": 7548,
"rency": 7549,
"\u0120cris": 7550,
"orted": 7551,
"\u0120becoming": 7552,
"tw": 7553,
"300": 7554,
"del": 7555,
"icious": 7556,
"Line": 7557,
"\u0120claimed": 7558,
"Ge": 7559,
"\u0120spoke": 7560,
"\u0120widely": 7561,
"\u0120keeping": 7562,
"\u0120budget": 7563,
"ben": 7564,
"\u0120Earth": 7565,
"ainer": 7566,
"\u0120Ref": 7567,
"\u0120demonstrate": 7568,
"\u0120knock": 7569,
"INE": 7570,
"\u0120jurisdiction": 7571,
"fess": 7572,
"Te": 7573,
"\u0120fort": 7574,
"PU": 7575,
"\u0120accompl": 7576,
"adian": 7577,
"\u0120consent": 7578,
"\u0120remark": 7579,
"Ent": 7580,
"\u0120conven": 7581,
"author": 7582,
"\u0120favorite": 7583,
"\u012049": 7584,
"web": 7585,
"\u0120sister": 7586,
"\u0120trials": 7587,
"ami": 7588,
"ju": 7589,
"\u0120pet": 7590,
"\u0120unable": 7591,
"\u0120disk": 7592,
"\u0120Solve": 7593,
"never": 7594,
"\u0120galax": 7595,
"\u0120trouble": 7596,
"zeta": 7597,
"\u0120reprodu": 7598,
"\u0120adm": 7599,
"\u0120rats": 7600,
"\u0120signaling": 7601,
"\u0120velocity": 7602,
"aven": 7603,
"tra": 7604,
"\u0120statistical": 7605,
"usiness": 7606,
"\u0120accepted": 7607,
"\u0120Tor": 7608,
"\u012041": 7609,
"ijms": 7610,
"SR": 7611,
"\u0120Mer": 7612,
"\u0120hence": 7613,
"src": 7614,
"\u0120familiar": 7615,
"\u0120specified": 7616,
"\u0120decide": 7617,
"\u0120Carol": 7618,
"\u0120dress": 7619,
"\u00d0\u00b8\u00d1\u0124": 7620,
"\u0120datas": 7621,
"\u0120route": 7622,
"\u0120neck": 7623,
"\u0120thereby": 7624,
"\u0120populations": 7625,
"\u0120java": 7626,
"\u0120horiz": 7627,
"}=\\": 7628,
"\u0120variation": 7629,
"\u0120domin": 7630,
"********************************": 7631,
"\u0120nodes": 7632,
"\u010a\u0120\u0120\u0120\u0120\u0120\u0120\u0120\u0120\u0120\u0120": 7633,
"\u0120Bur": 7634,
"\u0120thr": 7635,
"\u0120loved": 7636,
"\u0120ends": 7637,
"Pol": 7638,
"ivation": 7639,
"ums": 7640,
"\u0120Bill": 7641,
"\u0120suppl": 7642,
"\u0120\u0120\u0120\u0120\u0120\u0120\u0120\u0120\u0120\u0120\u0120\u0120\u0120\u0120\u0120\u0120\u0120\u0120\u0120\u0120\u0120\u0120\u0120\u0120\u0120": 7643,
"\u0120disp": 7644,
"model": 7645,
"\u0120template": 7646,
"La": 7647,
"\u0120Free": 7648,
"\u0120mand": 7649,
"\u0120Appe": 7650,
"\u0120NO": 7651,
"\u012043": 7652,
"\u0120pept": 7653,
"\u0120strict": 7654,
"otted": 7655,
"TA": 7656,
"Simplify": 7657,
"\u0120constraint": 7658,
"\u0120Dec": 7659,
"\u0120attached": 7660,
"\u0120revers": 7661,
"roduction": 7662,
"\u0120recording": 7663,
"\u0120worry": 7664,
"\u0120alcohol": 7665,
"ernel": 7666,
"\u0120Gal": 7667,
"\u0120involving": 7668,
"AGE": 7669,
"\u0120Jesus": 7670,
"\u0120Federal": 7671,
")*(": 7672,
"More": 7673,
"\u0120cab": 7674,
"lu": 7675,
"Ref": 7676,
"\u0120stret": 7677,
"\u00c3\u00a9e": 7678,
"\u00c5\u0124": 7679,
"\u0120contribution": 7680,
"\u0120technical": 7681,
"\u0120Den": 7682,
"velopment": 7683,
"\u0120os": 7684,
"legal": 7685,
"idelines": 7686,
"\u0120od": 7687,
"\u0120relationships": 7688,
"End": 7689,
"\u0120ped": 7690,
"\u0120cof": 7691,
"\u0120rub": 7692,
"cp": 7693,
"arl": 7694,
"ching": 7695,
"ponse": 7696,
"enance": 7697,
"grade": 7698,
"\u0120san": 7699,
"bug": 7700,
"\u0120murder": 7701,
"\u0120encoun": 7702,
"\u0120seek": 7703,
"road": 7704,
"\u0120FIG": 7705,
"wing": 7706,
"eller": 7707,
"iverse": 7708,
"\u0120cogn": 7709,
"Mr": 7710,
"YPE": 7711,
"\u0120Sing": 7712,
"ytic": 7713,
"\u0120manuscript": 7714,
"\u0120fellow": 7715,
"NO": 7716,
"\u0120Times": 7717,
"cdots": 7718,
"\u00e5\u0132": 7719,
"ector": 7720,
"?\u00e2\u0122\u013f": 7721,
"MC": 7722,
"\u0120dans": 7723,
"\u0120Serv": 7724,
"\u0120kne": 7725,
"\u0120interval": 7726,
"\u0120Richard": 7727,
"\u0120Ze": 7728,
"\u0120helps": 7729,
"\u0120committed": 7730,
"\u0120customer": 7731,
"\u0120persons": 7732,
"\u0120Work": 7733,
"\u0120};": 7734,
"\u0120abund": 7735,
"ogenic": 7736,
"hentic": 7737,
"\u0120suggesting": 7738,
"%.": 7739,
"\u0120forget": 7740,
"\u0120resource": 7741,
"\u0120radiation": 7742,
"\u0120Secret": 7743,
"\u0120commonly": 7744,
"Look": 7745,
"\u0120telling": 7746,
"\u0120adults": 7747,
"(\\[": 7748,
"110": 7749,
"false": 7750,
"\u0120Iran": 7751,
"sts": 7752,
"\u0120gro": 7753,
"\u0120Rad": 7754,
"\u0120colle": 7755,
"\u0120improvement": 7756,
"\u0120Hence": 7757,
"\u0120Florida": 7758,
"\u0120degrees": 7759,
"aped": 7760,
"System": 7761,
"\u00d0\u00b7": 7762,
"\u0120applicable": 7763,
"\u0120Please": 7764,
"\u0120soul": 7765,
"\u00c3\u00a1s": 7766,
"\u0120enforce": 7767,
"\u0120oxygen": 7768,
"defined": 7769,
"============": 7770,
"\u0120fle": 7771,
"\u00e0\u00b9": 7772,
"\u0120village": 7773,
"\u0120articles": 7774,
"\u0120\u00ec": 7775,
"ochem": 7776,
"\u0120truly": 7777,
"charge": 7778,
"water": 7779,
"}}{\\": 7780,
"Source": 7781,
"ivered": 7782,
"\u0120150": 7783,
"tag": 7784,
"\u0120Paris": 7785,
"\u0120\u00d1": 7786,
"\u0120limits": 7787,
"\u0120continues": 7788,
"\u0120branch": 7789,
"ifies": 7790,
"month": 7791,
"\u0120framework": 7792,
"\u0120hole": 7793,
"\u0120aspects": 7794,
"inet": 7795,
"\u0120assembly": 7796,
"clusions": 7797,
"2018": 7798,
"\u0120sought": 7799,
"\u0120pharm": 7800,
"thm": 7801,
"\u0120mixture": 7802,
"\u00c2\u00a7": 7803,
"\u0120Rule": 7804,
"otherapy": 7805,
"phen": 7806,
"brid": 7807,
"\u0120slowly": 7808,
"\u0120indicating": 7809,
"ASS": 7810,
"\u0120department": 7811,
"\u0120Mont": 7812,
"\u0120Life": 7813,
"\u0120Saturday": 7814,
"\u0120citizens": 7815,
"etime": 7816,
"BU": 7817,
"ructure": 7818,
"\u0120turns": 7819,
"\u0120Instead": 7820,
"inv": 7821,
"athy": 7822,
"\u0120policies": 7823,
"\u0120walking": 7824,
"\u0120adequ": 7825,
"\u0120potentially": 7826,
"\u0120conversation": 7827,
"\u0120\u0120\u0120\u0120\u0120\u0120\u0120\u0120\u0120\u0120\u0120\u0120\u0120\u0120\u0120\u0120\u0120\u0120\u0120\u0120\u0120\u0120\u0120\u0120\u0120\u0120": 7828,
"\u0120courts": 7829,
"\u0120payment": 7830,
"target": 7831,
"\u0120partner": 7832,
"\u010a\u0120\u0120\u0120\u0120\u0120\u0120\u0120\u0120\u0120\u0120\u0120\u0120": 7833,
"Part": 7834,
"\u0120sounds": 7835,
"cf": 7836,
"acent": 7837,
"omal": 7838,
"ilton": 7839,
"\u0120SH": 7840,
"azine": 7841,
"\u0120cellular": 7842,
"oration": 7843,
"\u0120axis": 7844,
"Please": 7845,
"\u0120ast": 7846,
"%%": 7847,
"\u0120afford": 7848,
"ushing": 7849,
"\u0120Its": 7850,
"ether": 7851,
"\u0120MS": 7852,
"herent": 7853,
"\u0120Ir": 7854,
"iary": 7855,
"\u0120hat": 7856,
"2009": 7857,
"LS": 7858,
"\u0120testified": 7859,
"aci\u00c3\u00b3n": 7860,
"\u0120pil": 7861,
"\u0120conj": 7862,
"\u0120massive": 7863,
"FS": 7864,
"Call": 7865,
"\u0120starts": 7866,
"\u0120perman": 7867,
"ophy": 7868,
"\u00d0\u00be\u00d0\u00bb": 7869,
"\u0120dynamic": 7870,
"\u0120signs": 7871,
"option": 7872,
"star": 7873,
"\u0120Four": 7874,
"\u0120marriage": 7875,
"eli": 7876,
"\u0120dimension": 7877,
"American": 7878,
"\u0120Twitter": 7879,
"\u0120absolute": 7880,
"\u0120challenges": 7881,
"\u0120stability": 7882,
"Who": 7883,
"$)": 7884,
"yer": 7885,
"names": 7886,
"\u0120threshold": 7887,
"\u0120communities": 7888,
"\u0120Sand": 7889,
"\u0120Use": 7890,
"\u0120mortality": 7891,
"\u0120cm": 7892,
"mid": 7893,
"arsh": 7894,
"\u0120secure": 7895,
"ela": 7896,
"\u0120ans": 7897,
"\u0120partial": 7898,
"\u0120accurate": 7899,
"\u0120Where": 7900,
"\u01201990": 7901,
"\u0120Johnson": 7902,
"\u0120Max": 7903,
"\u012046": 7904,
"\u0120hal": 7905,
"\u0120thoughts": 7906,
"\u0120depart": 7907,
"\u0120flag": 7908,
"oral": 7909,
"Two": 7910,
"\u0120prices": 7911,
"Bar": 7912,
"mg": 7913,
"\u0120interpretation": 7914,
"\u0120dys": 7915,
"layout": 7916,
"aded": 7917,
"\u0120Give": 7918,
"\u0120typename": 7919,
"rine": 7920,
"\u0120relax": 7921,
"\u0120assigned": 7922,
"\u0120polymer": 7923,
"\u0120Jose": 7924,
"\u0120native": 7925,
"\u0120recip": 7926,
"helial": 7927,
"\u0120acute": 7928,
"\u0120hur": 7929,
"umns": 7930,
"007": 7931,
"\u0120replaced": 7932,
"\u0120necessarily": 7933,
"\u0120sole": 7934,
"\u0120instrument": 7935,
"\u0120fundamental": 7936,
"udd": 7937,
"\u0120faster": 7938,
"\u0120linked": 7939,
"\u0120divers": 7940,
"BR": 7941,
"\u0120cash": 7942,
"\u0120characterized": 7943,
"\u0120tissues": 7944,
"\u0120concluded": 7945,
"\u0120oral": 7946,
"rior": 7947,
"\u0120Tuesday": 7948,
"\u0120Sil": 7949,
"\u0120larg": 7950,
"\u010d\u010a\u0109": 7951,
"\u0120climate": 7952,
"\u0120DO": 7953,
"\u0120fo": 7954,
"dep": 7955,
"\u0120CE": 7956,
"fast": 7957,
"uz": 7958,
"\u0120mRNA": 7959,
"\u0120merely": 7960,
"ante": 7961,
"\u0120Str": 7962,
"\u0120photos": 7963,
"\u0120definitely": 7964,
"\u0120defe": 7965,
"\u0120fluores": 7966,
"\u0120Big": 7967,
"\u0120pictures": 7968,
"arks": 7969,
"\u0120annual": 7970,
"\u0120facilit": 7971,
"\u0120microsc": 7972,
"build": 7973,
"\u00c3\u0124": 7974,
"\u0120fold": 7975,
"\u0120dependent": 7976,
"\u0120burden": 7977,
"\u0120immig": 7978,
"\u0120synd": 7979,
"\u0120Francis": 7980,
"\u0120license": 7981,
"\u0120metric": 7982,
"onym": 7983,
"\u0120Arch": 7984,
"\u0120visible": 7985,
"hether": 7986,
"\u0120prolif": 7987,
"LC": 7988,
"\u0120fan": 7989,
"\u0120scope": 7990,
"\u0120vitro": 7991,
"Ext": 7992,
"\u0120Peter": 7993,
"Vert": 7994,
"\u0120Fore": 7995,
"\u0120sensitive": 7996,
"\u0120instructions": 7997,
"\u0120\"(": 7998,
"INT": 7999,
"\u0120accel": 8000,
"\\]).": 8001,
"nav": 8002,
"\u0120closer": 8003,
"\u0120smallest": 8004,
"\u0120protest": 8005,
"ented": 8006,
"\u0120decades": 8007,
"\u0120interact": 8008,
"dule": 8009,
"\u0120PA": 8010,
"^-": 8011,
"2008": 8012,
"\u0120plastic": 8013,
"\u0120thousand": 8014,
"ERR": 8015,
"NF": 8016,
"\u0120IT": 8017,
"\u0120implies": 8018,
"\u0120IV": 8019,
"ji": 8020,
"\u0120EX": 8021,
"PI": 8022,
"apse": 8023,
"\u0120Er": 8024,
"\u0120assumed": 8025,
"\u012056": 8026,
"\u0120launch": 8027,
"\u0120listen": 8028,
"ributes": 8029,
"\u0120gent": 8030,
"\u0120stack": 8031,
"ima": 8032,
"\u0120Islam": 8033,
"\u0120cra": 8034,
"\u0120Another": 8035,
"bling": 8036,
"\u0120gap": 8037,
"\u0120installed": 8038,
"\u0120housing": 8039,
"\u0120Cap": 8040,
"\u0120attend": 8041,
"\u0120pointed": 8042,
"\u0120flav": 8043,
"\u0120\u0120\u0120\u0120\u0120\u0120\u0120\u0120\u0120\u0120\u0120\u0120\u0120\u0120\u0120\u0120\u0120\u0120\u0120\u0120\u0120\u0120\u0120\u0120\u0120\u0120\u0120": 8044,
"event": 8045,
"\u0120enable": 8046,
"iger": 8047,
":\\": 8048,
"\u0120Project": 8049,
"\u0120bare": 8050,
"ampionship": 8051,
"adding": 8052,
"Query": 8053,
"undle": 8054,
"ounded": 8055,
"omer": 8056,
"\u0120Long": 8057,
"\u0120proved": 8058,
"\u0120conference": 8059,
"button": 8060,
"Thanks": 8061,
"\u0120dynamics": 8062,
"\u0120principle": 8063,
"\u0120funds": 8064,
"\u01201998": 8065,
"\u0120pix": 8066,
"\u0120fabric": 8067,
"\u0120Chicago": 8068,
"\u0120effectively": 8069,
"icular": 8070,
"\u0120react": 8071,
"\u0120End": 8072,
"\u012052": 8073,
"mosp": 8074,
"ials": 8075,
"cat": 8076,
"\u0120simpl": 8077,
"\u0120Type": 8078,
"\u0120Indeed": 8079,
"\u0120hero": 8080,
"\u0120Po": 8081,
"\u00e0\u00a6": 8082,
"\u0120union": 8083,
"\u0120sqrt": 8084,
"\u0120split": 8085,
"\u0120arbitr": 8086,
"\u0120rail": 8087,
"\\[[@": 8088,
"fold": 8089,
"\u0120layers": 8090,
"\u0120particle": 8091,
"\u0120antibody": 8092,
"Stream": 8093,
"\u0120molecules": 8094,
"\u0120\u00cf\u0122": 8095,
"Am": 8096,
"\u0120ven": 8097,
"eness": 8098,
"\u0120walls": 8099,
"ACK": 8100,
"nel": 8101,
"dict": 8102,
"\u0120objective": 8103,
"\u0120attacks": 8104,
"\u0120tail": 8105,
"\u0120guilty": 8106,
"\u0120reverse": 8107,
"pload": 8108,
"\u0120supporting": 8109,
"\u0120vot": 8110,
"rows": 8111,
"END": 8112,
"\u0120vision": 8113,
"&=": 8114,
"\u0120maps": 8115,
"Back": 8116,
"\u00d0\u00b0\u00d0\u00bb": 8117,
"\u0120African": 8118,
"\u0120commission": 8119,
"\u0120occasion": 8120,
"\u0120editor": 8121,
"ressive": 8122,
"\u0120channels": 8123,
"format": 8124,
"aria": 8125,
"\u0120coh": 8126,
"\u0120largely": 8127,
"\u0120fees": 8128,
"\u0120\u010a\u0120\u0120\u0120": 8129,
"\u0120strategies": 8130,
"\u0120predicted": 8131,
"\u0120rig": 8132,
"\u0120putting": 8133,
"\u0120\u00d1\u0124": 8134,
"\u0120shell": 8135,
"\u0120passing": 8136,
"\u0120identification": 8137,
"\u0120waste": 8138,
"\u0120\u00e2\u0122\u00a6": 8139,
"iously": 8140,
"\u0120Star": 8141,
"\u0120fashion": 8142,
"\u0120perm": 8143,
"\u0120Sol": 8144,
"!--": 8145,
"\u0120reson": 8146,
"ERE": 8147,
"\u0120Cle": 8148,
"\u0120investment": 8149,
"\u0120toler": 8150,
"\u0120feat": 8151,
"irector": 8152,
"\u0120IP": 8153,
"\u0120hun": 8154,
"dist": 8155,
"\u0120realized": 8156,
"\u0120\u00c2\u00a3": 8157,
"\u0120bath": 8158,
"pg": 8159,
"\u0120ON": 8160,
"Hz": 8161,
"\u0120contribute": 8162,
"oked": 8163,
"\u0120instant": 8164,
"ollowing": 8165,
"\u0120laser": 8166,
"\u0120Defendant": 8167,
"\u0120[]": 8168,
"\u0120messages": 8169,
"\u0120Central": 8170,
"\u0120replace": 8171,
"linear": 8172,
"\u010d\u010a\u0120\u0120\u0120\u0120\u0120\u0120\u0120\u0120\u0120\u0120\u0120": 8173,
"\u0120Jo": 8174,
"ottom": 8175,
"\u0120admitted": 8176,
"urop": 8177,
"\u0120Wal": 8178,
"ftware": 8179,
"\u0120consideration": 8180,
"\u00d8\u00aa": 8181,
"\u0120Li": 8182,
"\u0120employee": 8183,
"\u0120sight": 8184,
"inton": 8185,
"plant": 8186,
"\u012072": 8187,
"\u0120radi": 8188,
"athered": 8189,
"contin": 8190,
"\u0120informed": 8191,
"\u0120Log": 8192,
"120": 8193,
"\u0120sched": 8194,
"Another": 8195,
"128": 8196,
"\u0120estimates": 8197,
"\u0120epit": 8198,
"EV": 8199,
"**,": 8200,
"ipping": 8201,
"yan": 8202,
"\u0120contem": 8203,
"\u00d1\u0130": 8204,
"\u0120pursu": 8205,
"life": 8206,
"Ind": 8207,
"\u0120intention": 8208,
"FIG": 8209,
"\u01201997": 8210,
"eting": 8211,
"\u0120composite": 8212,
"\u0120matters": 8213,
"\u0120expensive": 8214,
"\u0120EU": 8215,
"\u0120Thursday": 8216,
"\u0120Apple": 8217,
"lectric": 8218,
"\u0120argues": 8219,
"??": 8220,
"\u0120Nav": 8221,
"effect": 8222,
"\u0120segment": 8223,
"Manager": 8224,
"\u0120tit": 8225,
"ontal": 8226,
"\u0120suc": 8227,
"\u0120grown": 8228,
"\u0120Sk": 8229,
"\u0120blow": 8230,
"\u0120dropped": 8231,
"\u0120zone": 8232,
"rapeutic": 8233,
"inite": 8234,
"oung": 8235,
"media": 8236,
"\u0120Virgin": 8237,
"\u0120cities": 8238,
".</": 8239,
"\u0120Count": 8240,
"chron": 8241,
"ORD": 8242,
"sen": 8243,
"\u0120closely": 8244,
"\u0120baseline": 8245,
"\u0120Program": 8246,
"\u0120Back": 8247,
"\u0120bodies": 8248,
"\u0120scientific": 8249,
"clear": 8250,
"\u0120wear": 8251,
"Start": 8252,
"\u0120float": 8253,
"\u0120clar": 8254,
"\u012054": 8255,
"\u0120None": 8256,
"\u0120simult": 8257,
"ogenesis": 8258,
"conf": 8259,
"zer": 8260,
"\u0120okay": 8261,
"Hey": 8262,
"uled": 8263,
"\u0120fet": 8264,
"neg": 8265,
"\u0120font": 8266,
"Every": 8267,
"\u0120exceed": 8268,
"\u0120legisl": 8269,
"seud": 8270,
"assert": 8271,
"aneously": 8272,
"\u0120Society": 8273,
"\u0120honest": 8274,
"equiv": 8275,
"\u0120warn": 8276,
"\u0120\u00d0\u00bc": 8277,
"\u0120disput": 8278,
"riev": 8279,
"\u0120www": 8280,
"\u0120river": 8281,
"HS": 8282,
"\u0120Copyright": 8283,
"\u0120requirement": 8284,
"\u0120asym": 8285,
"CTION": 8286,
"ulating": 8287,
"\u0120speaking": 8288,
"sd": 8289,
"\u0120boys": 8290,
",_": 8291,
"pert": 8292,
"\u0120Justice": 8293,
"\u0120responsibility": 8294,
"\u0120emission": 8295,
"III": 8296,
"inte": 8297,
"bridge": 8298,
"theless": 8299,
"acket": 8300,
"SON": 8301,
"\u0120Jones": 8302,
"ributions": 8303,
"\u0120estate": 8304,
"\u0120Hy": 8305,
"rac": 8306,
"\u0120hundreds": 8307,
"\u0120Minister": 8308,
"enu": 8309,
"\u0120observation": 8310,
"ni": 8311,
"\u0120dangerous": 8312,
"\u00c2\u00bd": 8313,
"\u0120rid": 8314,
"\u0120defic": 8315,
"mL": 8316,
"\u0120collabor": 8317,
"\u013b\u00aa": 8318,
"\u012051": 8319,
"400": 8320,
"\u0120disappe": 8321,
"\u0120amounts": 8322,
"\u0120windows": 8323,
"Property": 8324,
"\u0120beam": 8325,
"\u0120chart": 8326,
"\u0120desire": 8327,
"isters": 8328,
"umer": 8329,
"\u0120Wednesday": 8330,
"missions": 8331,
"\u0120provision": 8332,
"\u0120practices": 8333,
"\u0120sick": 8334,
"\u0120sheet": 8335,
"\u0120blocks": 8336,
"pet": 8337,
"\u0120explore": 8338,
"\u0120Information": 8339,
"buf": 8340,
"\u0120plaintiffs": 8341,
"\u0120plain": 8342,
"uum": 8343,
"\u0120noticed": 8344,
"fonts": 8345,
"\u0120outer": 8346,
"\u0120Child": 8347,
"\u00ce\u00ac": 8348,
"outs": 8349,
"\u0120structural": 8350,
"\u0120terminal": 8351,
"\u0120Mount": 8352,
"\u0120consumption": 8353,
"DNA": 8354,
"\u00d0\u00bd\u00d0\u00be": 8355,
"\u0120automatically": 8356,
"\u0120seed": 8357,
"wer": 8358,
"\u0120Mel": 8359,
"\u0120ED": 8360,
"\u0120\u00ce\u00b2": 8361,
"\u0120funding": 8362,
"\u0120och": 8363,
"\u0120cards": 8364,
"\u0120Arab": 8365,
"\u0120overl": 8366,
"\u0120PH": 8367,
"\u0120examination": 8368,
"\u0120\u0120\u0120\u0120\u0120\u0120\u0120\u0120\u0120\u0120\u0120\u0120\u0120\u0120\u0120\u0120\u0120\u0120\u0120\u0120\u0120\u0120\u0120\u0120\u0120\u0120\u0120\u0120\u0120\u0120\u0120\u0120\u0120\u0120\u0120\u0120\u0120\u0120\u0120\u0120\u0120\u0120\u0120\u0120\u0120\u0120\u0120\u0120\u0120\u0120\u0120\u0120\u0120\u0120\u0120\u0120\u0120\u0120\u0120\u0120\u0120\u0120\u0120\u0120\u0120\u0120\u0120\u0120\u0120\u0120\u0120\u0120\u0120\u0120\u0120\u0120\u0120\u0120\u0120\u0120\u0120\u0120\u0120\u0120\u0120\u0120\u0120\u0120\u0120\u0120\u0120\u0120\u0120\u0120\u0120\u0120": 8369,
"\u0120Roman": 8370,
"\u0120academ": 8371,
"LO": 8372,
"\u0120Bas": 8373,
"\u0120lic": 8374,
"\"),": 8375,
"\u0120intra": 8376,
"\u0120Fre": 8377,
"\u0120Method": 8378,
"\u0120successfully": 8379,
"Come": 8380,
"\u00c2\u0124": 8381,
"bel": 8382,
"\u0120glucose": 8383,
"next": 8384,
"\u0120assistance": 8385,
"\u0120kick": 8386,
"\u0120Bet": 8387,
"\u0120fer": 8388,
"His": 8389,
"eper": 8390,
"rehens": 8391,
"\u0120drawn": 8392,
"\u0120pig": 8393,
"\u0120proportion": 8394,
"})\\": 8395,
"noon": 8396,
"\u0120Dev": 8397,
"Thank": 8398,
"\u0120offense": 8399,
"std": 8400,
"\u0120diabetes": 8401,
"minimal": 8402,
"sup": 8403,
"\u0120Social": 8404,
"\u0120lig": 8405,
"\u0120writer": 8406,
"afe": 8407,
"\u0120negot": 8408,
"\u0120offset": 8409,
"\u0120employment": 8410,
"\u0120violation": 8411,
"display": 8412,
"\u0120ske": 8413,
"\u0120consists": 8414,
"\u0120solve": 8415,
"\u0120finish": 8416,
"BM": 8417,
"apache": 8418,
"\u0120Stand": 8419,
"mann": 8420,
"odds": 8421,
"-(": 8422,
"\u0120suddenly": 8423,
"\u0120stem": 8424,
"scrib": 8425,
"\u0120justice": 8426,
"\u0120vivo": 8427,
"img": 8428,
"\u0120pu": 8429,
"Although": 8430,
"\u010d\u010a\u0120\u0120\u0120\u0120\u0120": 8431,
"ira": 8432,
"sg": 8433,
"\u0120innov": 8434,
"rl": 8435,
"\u0120preced": 8436,
"\u0120101": 8437,
"\u0120Jim": 8438,
"\u0120Review": 8439,
"ona": 8440,
"\u01201996": 8441,
"\u0120figures": 8442,
"\u0120arrang": 8443,
"\u0120Charles": 8444,
"\u0120seeking": 8445,
"\u0120audience": 8446,
"Number": 8447,
"rible": 8448,
"\u0120von": 8449,
"\u0120experiences": 8450,
"\u0120Island": 8451,
"\u0120Who": 8452,
"\u0120significance": 8453,
"\u0120_{": 8454,
"Right": 8455,
"json": 8456,
"Because": 8457,
"\u0120cars": 8458,
"\u0120margin": 8459,
"\u0120reform": 8460,
"\u0120poll": 8461,
"\u0120Py": 8462,
"\u0120milk": 8463,
"\u0120Est": 8464,
"\u00e2\u0122\u0136\u00e2\u0122\u0136": 8465,
"\u0120veget": 8466,
"\u0120sky": 8467,
"\u0120sensor": 8468,
"Gu": 8469,
"\u0120spaces": 8470,
"friend": 8471,
"\u0120len": 8472,
"\u0120embed": 8473,
"\u0120senior": 8474,
"inates": 8475,
"tab": 8476,
"\u0120PCR": 8477,
"Br": 8478,
"\u0120causing": 8479,
"*/": 8480,
"\u0120Grand": 8481,
"\u0120subt": 8482,
"\u0120pit": 8483,
"Us": 8484,
"\u0120vast": 8485,
"Det": 8486,
"\u0120pH": 8487,
"\u0120lift": 8488,
"\u0120somewhat": 8489,
"\u0120File": 8490,
"fit": 8491,
"\u0120bias": 8492,
"\u0120reducing": 8493,
"Rem": 8494,
"\u0120align": 8495,
"\u00d0\u00be\u00d0\u00bc": 8496,
"Note": 8497,
"vin": 8498,
"\u0120supplement": 8499,
"ao": 8500,
"flu": 8501,
"\u0120Du": 8502,
"}},": 8503,
"NN": 8504,
"\u0120apparently": 8505,
"AY": 8506,
"\u0120nerv": 8507,
"\u0120compound": 8508,
"\u00e3\u0123\u00be": 8509,
"writ": 8510,
"\u0120ho": 8511,
"\u0120neurons": 8512,
"\u0120hurt": 8513,
"\u0120cu": 8514,
"ifts": 8515,
"\u0120brown": 8516,
"prote": 8517,
"ication": 8518,
"control": 8519,
"\u00ce\u00bf\u00cf\u0127": 8520,
"\u0120recommended": 8521,
"unit": 8522,
"\u0120initially": 8523,
"\u0120Mur": 8524,
"\u0120supports": 8525,
"avel": 8526,
"\u0120integrated": 8527,
"VD": 8528,
"\u0120Fed": 8529,
"\u0120famous": 8530,
"uint": 8531,
"ighter": 8532,
"\u010a\u010a\u0120\u0120\u0120\u0120\u0120\u0120\u0120\u0120\u0120\u0120\u0120\u0120\u0120\u0120\u0120\u0120\u0120\u0120\u0120\u0120\u0120\u0120\u0120\u0120\u0120\u0120\u0120\u0120\u0120\u0120\u0120\u0120": 8533,
"\u0120acting": 8534,
"west": 8535,
"ensus": 8536,
"zing": 8537,
"erior": 8538,
"').": 8539,
"\u0120damages": 8540,
"igan": 8541,
"\u0120practical": 8542,
"ductor": 8543,
"\u0120army": 8544,
"\u0120electrical": 8545,
"Spec": 8546,
"template": 8547,
"\u0120clients": 8548,
"\u0120delivered": 8549,
"ivated": 8550,
"000000": 8551,
"iscuss": 8552,
"\u0120accounts": 8553,
"\u0120vul": 8554,
"\u0120mic": 8555,
"\u0120atmosp": 8556,
"\u0120pairs": 8557,
"\u0120primarily": 8558,
"message": 8559,
"prop": 8560,
"BD": 8561,
"]^.": 8562,
"\u0120depos": 8563,
"\u0120imagine": 8564,
"\u0120Land": 8565,
"\u0120compact": 8566,
"png": 8567,
"\u00c3\u0133": 8568,
"\u0120fing": 8569,
"\u0120removal": 8570,
"\u0120targets": 8571,
"urally": 8572,
"\u0120internet": 8573,
"\u0120coffee": 8574,
"OH": 8575,
"\u0120kitchen": 8576,
"\u0120turning": 8577,
"\u0120subset": 8578,
")|": 8579,
"\u0120smile": 8580,
"status": 8581,
"\u0120Tem": 8582,
"kes": 8583,
"uable": 8584,
"ados": 8585,
"oder": 8586,
"\u00e6\u0138": 8587,
"\u0120weather": 8588,
"}|": 8589,
"Content": 8590,
"\u0120promote": 8591,
"erman": 8592,
"\u0120locations": 8593,
"obe": 8594,
"\u0120Java": 8595,
"\u0120aid": 8596,
"\u0120desk": 8597,
"\u0120Spe": 8598,
"\u0120tells": 8599,
"\u0120render": 8600,
"rot": 8601,
"2007": 8602,
"2006": 8603,
"documentclass": 8604,
"\u0120[[": 8605,
"find": 8606,
"\u0120researchers": 8607,
"dat": 8608,
"\u0120thermal": 8609,
"\u0120COM": 8610,
"\u0120\u00e2\u012b": 8611,
"\u0120representative": 8612,
"mediate": 8613,
"\u0120hotel": 8614,
"\u0120fighting": 8615,
"Psi": 8616,
"ictor": 8617,
"\u0120sugar": 8618,
"rif": 8619,
"Good": 8620,
"hab": 8621,
"\u0120surg": 8622,
"align": 8623,
"\u0120principal": 8624,
"vol": 8625,
"${": 8626,
"ysym": 8627,
"\u0120Atl": 8628,
"null": 8629,
"\u0120flight": 8630,
"\u0120describes": 8631,
"dec": 8632,
"}\\,": 8633,
".-": 8634,
"aft": 8635,
"zo": 8636,
"\u0120discretion": 8637,
"\u0120inhibition": 8638,
"Before": 8639,
"module": 8640,
"\u0120propag": 8641,
"\u0120closest": 8642,
"MM": 8643,
"\u0120amazing": 8644,
"\u0120gender": 8645,
"atural": 8646,
"\u0120Camp": 8647,
"haust": 8648,
"\u0120het": 8649,
"\u00e6\u012a": 8650,
"\u0120mechanical": 8651,
"\u0120Lee": 8652,
"\u0120displayed": 8653,
"\u0120optimal": 8654,
"\u0120enhanced": 8655,
"high": 8656,
"ati": 8657,
"scr": 8658,
"ted": 8659,
"\u0120dust": 8660,
"\u0120stages": 8661,
"Char": 8662,
"\u0120Army": 8663,
"\u0120concerning": 8664,
"Other": 8665,
"olecules": 8666,
"\u0120monitoring": 8667,
"\u0120perspective": 8668,
"\u0120Road": 8669,
"\u0120pump": 8670,
"\u0120adopted": 8671,
"\u0120politics": 8672,
"iological": 8673,
"\u0120sir": 8674,
"\u010a\u010c": 8675,
"\u012053": 8676,
"El": 8677,
"iki": 8678,
"\u0120Bob": 8679,
"\u0120feedback": 8680,
"\u0120IF": 8681,
"Point": 8682,
"SO": 8683,
"\u0120Math": 8684,
"\u0120era": 8685,
"\u0120bought": 8686,
"\u0120involves": 8687,
"\u012099": 8688,
"\u0120spr": 8689,
"\u0120coach": 8690,
"\u0120fant": 8691,
"\u0120info": 8692,
"Last": 8693,
"\u0120Prote": 8694,
"Net": 8695,
"\u0120lies": 8696,
"\u0120algebra": 8697,
"\u0120Martin": 8698,
"}{-": 8699,
"lang": 8700,
"his": 8701,
"\u0120YOU": 8702,
"**(": 8703,
"\u0120surrounding": 8704,
"cean": 8705,
"\u0120repair": 8706,
"orts": 8707,
"\u0120organic": 8708,
"\u0120strains": 8709,
"\u0120Medical": 8710,
"\u0120dram": 8711,
"nut": 8712,
"\u0120\u00d0\u00bd\u00d0\u00b0": 8713,
"\u0120Sign": 8714,
"\u0120hadn": 8715,
"search": 8716,
"\u0120SO": 8717,
"\u0120ok": 8718,
"gener": 8719,
"LR": 8720,
"\u0120Equ": 8721,
"\u0120manage": 8722,
"\u0120minimal": 8723,
"hydro": 8724,
"\u0120extends": 8725,
"\u0120Fire": 8726,
"ista": 8727,
"\u0120BE": 8728,
"\u0120ja": 8729,
"\\*\\*": 8730,
"setlength": 8731,
"John": 8732,
"\u0120como": 8733,
"\u0120chick": 8734,
"oston": 8735,
"wered": 8736,
"lines": 8737,
"\u0120democr": 8738,
"ellar": 8739,
"\u0120antibodies": 8740,
"\u0120Ro": 8741,
"\u0120Los": 8742,
">(": 8743,
")+": 8744,
"\u0120deploy": 8745,
"\u0120dual": 8746,
"greek": 8747,
"\u0120laun": 8748,
"\u0120register": 8749,
"\u0120bigger": 8750,
"sensors": 8751,
"widehat": 8752,
"\u0120seg": 8753,
"wa": 8754,
"\u0120Lemma": 8755,
"\u0120recon": 8756,
"\u0120Williams": 8757,
"\u0120Non": 8758,
"creen": 8759,
"\u0120promot": 8760,
"\u0120profession": 8761,
"\u0120snow": 8762,
"\u0120hidden": 8763,
"\u0120wed": 8764,
"aks": 8765,
"stat": 8766,
"\u0120uncertain": 8767,
"FO": 8768,
"*^": 8769,
"\u0120behaviour": 8770,
"\u0120McC": 8771,
"\u0120wrt": 8772,
"\u0120escape": 8773,
"summary": 8774,
"weet": 8775,
"\u0120sector": 8776,
"ups": 8777,
"\u0120fly": 8778,
"inating": 8779,
"client": 8780,
"\u0120container": 8781,
"liament": 8782,
"\u0120lots": 8783,
"\u0120Av": 8784,
"\u0120carrying": 8785,
"\u0120Republican": 8786,
"\u00d0\u00b1": 8787,
"\u0120wealth": 8788,
"\u0120coupling": 8789,
"\u0120subs": 8790,
"\u0120anyway": 8791,
"omething": 8792,
"\u0120\u00d0\u00b7": 8793,
"\u0120nu": 8794,
"]$": 8795,
"\u0120purs": 8796,
"\u0120Muslim": 8797,
"amsmath": 8798,
"\u0120Wall": 8799,
"\u0120bear": 8800,
"\u0120Human": 8801,
"\u0120Us": 8802,
"\u0120habit": 8803,
"\u00d0\u00be\u00d0\u00b4": 8804,
"\u0120stone": 8805,
"\u0120suf": 8806,
"ila": 8807,
"unte": 8808,
"amss": 8809,
"inux": 8810,
"\u0120residents": 8811,
"\u0120delet": 8812,
"\u0120explanation": 8813,
"}^{(": 8814,
"\u0120horse": 8815,
"Po": 8816,
"endants": 8817,
"\u0120constructed": 8818,
"ws": 8819,
"\u0120spatial": 8820,
"ensed": 8821,
"amssymb": 8822,
"bsy": 8823,
"\u00c3\u00bcr": 8824,
"\u0120soil": 8825,
"some": 8826,
"rsfs": 8827,
"mathrsfs": 8828,
"\u0120injection": 8829,
"\u0120contro": 8830,
"\u0120Ira": 8831,
"ffff": 8832,
"byte": 8833,
"amsfonts": 8834,
"WH": 8835,
"People": 8836,
"\u0120tumors": 8837,
"\u0120maintained": 8838,
"\u0120absolutely": 8839,
"\u0120lowest": 8840,
"\u00e6\u013a": 8841,
"\u0120Cath": 8842,
"\u0120newsp": 8843,
"amsbsy": 8844,
"\u0120rent": 8845,
"QU": 8846,
"\u0120characteristic": 8847,
"\u0120institution": 8848,
"\u0120weekend": 8849,
"([": 8850,
"\u0120vide": 8851,
"\u0120coast": 8852,
"\u0120Offic": 8853,
"args": 8854,
"eling": 8855,
"riers": 8856,
"\u0120chapter": 8857,
"values": 8858,
"\u0120planet": 8859,
"wasysym": 8860,
"upgreek": 8861,
"\u0120yellow": 8862,
"\u010a\u010a\u010a\u010a\u010a": 8863,
"\u0120ru": 8864,
"idemargin": 8865,
"\u0120metast": 8866,
"oddsidemargin": 8867,
"\u0120flux": 8868,
"\u0120creation": 8869,
"\u0120rational": 8870,
"\u0120picking": 8871,
"\u0120sad": 8872,
"entry": 8873,
"\u0120Acc": 8874,
"ICE": 8875,
"\u0120median": 8876,
"\u0120driven": 8877,
"\u01201995": 8878,
"aze": 8879,
"Button": 8880,
"\u0120debate": 8881,
"context": 8882,
"ayers": 8883,
"\u0120declared": 8884,
"ori": 8885,
"\u0120clock": 8886,
"CV": 8887,
"\u0120mail": 8888,
"\u0120organizations": 8889,
"called": 8890,
"\u0120crisis": 8891,
"\u0120tasks": 8892,
"Version": 8893,
"\u0120\"\\": 8894,
"ema": 8895,
"\u0120Hospital": 8896,
"008": 8897,
"\u0120amino": 8898,
"\u0120grew": 8899,
"\u0120discovery": 8900,
"isa": 8901,
"abb": 8902,
"Ag": 8903,
"DB": 8904,
"\u0120remote": 8905,
"util": 8906,
"\u0120Senate": 8907,
"ABLE": 8908,
"\u0120odd": 8909,
"\u0120menu": 8910,
"\u0120Jersey": 8911,
"allow": 8912,
"\u0120ban": 8913,
"\u0120weapons": 8914,
"\u0120---": 8915,
"\u0120Power": 8916,
"Did": 8917,
"\u0120dollars": 8918,
"\u0120ol": 8919,
"\u0120youth": 8920,
"\u0120strange": 8921,
"ishment": 8922,
"\u0120deaths": 8923,
"\u00e2\u0122\u013a": 8924,
"\u0120determining": 8925,
"\u010a\u010a\u0120\u0120": 8926,
"\u0120originally": 8927,
"\u0120cultural": 8928,
"Controller": 8929,
"\u0120island": 8930,
"\u0120identical": 8931,
"Base": 8932,
"\u0120stead": 8933,
"Eng": 8934,
"\u0120west": 8935,
"\u0120superior": 8936,
"\u0120Old": 8937,
"foot": 8938,
"\u0120Pet": 8939,
"\u010a\u0120\u0120\u0120\u0120\u0120\u0120\u0120\u0120\u0120\u0120\u0120\u0120\u0120\u0120\u0120\u0120\u0120": 8940,
"achment": 8941,
"\u00c2\u00ae": 8942,
"\u0120evident": 8943,
"Sm": 8944,
"\u0120emergency": 8945,
"\u0120classical": 8946,
"ova": 8947,
"\u0120Maybe": 8948,
"orters": 8949,
"ald": 8950,
"\u0120CL": 8951,
"ali": 8952,
"irable": 8953,
"\u0120fro": 8954,
"\u0120dinner": 8955,
"\u0120accordance": 8956,
"\u0120surve": 8957,
"\u0120knowing": 8958,
"\u0120prompt": 8959,
"iana": 8960,
"\u00d1\u0128": 8961,
"uv": 8962,
"astern": 8963,
"cers": 8964,
"\u0120bars": 8965,
"\u0120Henry": 8966,
"\u0120differential": 8967,
"\u0120realize": 8968,
"\u0120Tim": 8969,
"150": 8970,
"2001": 8971,
"009": 8972,
"\u0120NE": 8973,
"quare": 8974,
"Client": 8975,
"uster": 8976,
"omatic": 8977,
"\u012059": 8978,
"\u0120shop": 8979,
"\u0120bind": 8980,
"\u0120recognition": 8981,
"Input": 8982,
"Post": 8983,
"\u0120disorder": 8984,
"\u0120binary": 8985,
"\u0120winter": 8986,
"\u0120Mexico": 8987,
"\u012057": 8988,
"\u0120mask": 8989,
"\u0120API": 8990,
"\u0120emotional": 8991,
"match": 8992,
"\u0120immediate": 8993,
"\u0120\\>": 8994,
"\u0120wine": 8995,
"\u0120prevalence": 8996,
"Off": 8997,
"BE": 8998,
"onents": 8999,
"\u0120apopt": 9000,
"\u0120sports": 9001,
"\u0120Wood": 9002,
"\u00c2\u00b5": 9003,
"\u0120rect": 9004,
"\u0120cloud": 9005,
"AF": 9006,
"rium": 9007,
"\u0120preparation": 9008,
"\u0120implemented": 9009,
"\u0120finds": 9010,
"\u0120Sir": 9011,
"\u0120laugh": 9012,
"\u0120preferred": 9013,
"\\]),": 9014,
"\u0120bio": 9015,
"css": 9016,
"\u0120extend": 9017,
"\u0120Never": 9018,
"Action": 9019,
"isting": 9020,
"\u0120contributions": 9021,
"\u0120ment": 9022,
"\u0120promise": 9023,
"fections": 9024,
"\u0120division": 9025,
"Script": 9026,
".\u00e2\u0122\u013b": 9027,
"\u0120\u00ce\u00ba": 9028,
"show": 9029,
"Gl": 9030,
"\u0120Educ": 9031,
"////////////////": 9032,
"ATA": 9033,
"Dr": 9034,
"\u0120inequ": 9035,
"rons": 9036,
"\u0120episode": 9037,
"icate": 9038,
"\u0120calc": 9039,
"\u0120og": 9040,
"uan": 9041,
"DM": 9042,
"\u0120sed": 9043,
"\u0120Security": 9044,
"anna": 9045,
"\u0120forming": 9046,
"\u0120watched": 9047,
"reatment": 9048,
"\u0120excited": 9049,
"\u0120categories": 9050,
"IE": 9051,
"\u0120Ext": 9052,
"\u00e0\u00ae": 9053,
"\u0120enemy": 9054,
"\u0120afternoon": 9055,
"\u0120respective": 9056,
"ometimes": 9057,
"\u0120trend": 9058,
"\u0120argue": 9059,
"\u0120Chief": 9060,
"\u0120authorities": 9061,
"\u0120thor": 9062,
"Check": 9063,
"\u0120Three": 9064,
"\u0120worst": 9065,
"\u0120synthesis": 9066,
"\u0120Home": 9067,
"nc": 9068,
"\u0120Jeff": 9069,
"\u0120separated": 9070,
"\u0120flo": 9071,
"strong": 9072,
"\u0120helping": 9073,
"\u0120Fil": 9074,
"\u0120taste": 9075,
"\u0120homes": 9076,
"\u0120regression": 9077,
"\u00e8\u00bf": 9078,
"\u0120hypothesis": 9079,
"\u0120diameter": 9080,
"\u0120chest": 9081,
"\u00d1\u012a": 9082,
"Phys": 9083,
"\u0120vit": 9084,
"terior": 9085,
"\u0120rapidly": 9086,
"\u0120DC": 9087,
"there": 9088,
"iatric": 9089,
"\u0120obviously": 9090,
"\u0120opportunities": 9091,
"\u0120tip": 9092,
"\u0120essentially": 9093,
"\u0120ye": 9094,
"rolled": 9095,
"\u0120circle": 9096,
"\u0120dogs": 9097,
"\u01201000": 9098,
"\u0120consequences": 9099,
"\u0120spending": 9100,
"\u0120suspect": 9101,
")]": 9102,
"\u0120ANY": 9103,
"010": 9104,
"nger": 9105,
"\u0120totally": 9106,
"\u0120Software": 9107,
"bro": 9108,
"\u0120Journal": 9109,
"\u0120Yet": 9110,
"bu": 9111,
"Rel": 9112,
"\u0120correctly": 9113,
"lie": 9114,
"lements": 9115,
"\u0120fraud": 9116,
"otypes": 9117,
"\u0120vertical": 9118,
"\u0120mob": 9119,
"everal": 9120,
"\u0120\\{": 9121,
"PM": 9122,
"\u0120eating": 9123,
"\u00c5\u00be": 9124,
"\u0120argued": 9125,
"fraid": 9126,
"expected": 9127,
"\u0120genome": 9128,
"\u0120ancient": 9129,
"\u0120pathways": 9130,
"before": 9131,
"\u0120meat": 9132,
"number": 9133,
"property": 9134,
"\u012058": 9135,
"\u0120powers": 9136,
"\u0120marketing": 9137,
"1000": 9138,
"\u0120territ": 9139,
"\u0120gift": 9140,
"iser": 9141,
"\u0120ultimately": 9142,
"bles": 9143,
"\u0120gast": 9144,
"\u0120centre": 9145,
"\u00e3\u0123\u012d": 9146,
"Pat": 9147,
"split": 9148,
"\u0120BY": 9149,
"Dec": 9150,
"DC": 9151,
"android": 9152,
"\u0120nm": 9153,
"even": 9154,
"ipt": 9155,
"\u0120theoret": 9156,
"\u0120Additionally": 9157,
"\u0120operators": 9158,
"\u0120offering": 9159,
"\u0120\u00d1\u0122": 9160,
"\u012096": 9161,
"\u0120classification": 9162,
"sche": 9163,
"\u0120peripher": 9164,
"\u0120executive": 9165,
"\u0120400": 9166,
"\u0120Cup": 9167,
"\u0120neighborhood": 9168,
"\u01202020": 9169,
"\u0120Mult": 9170,
"\u0120scal": 9171,
"\u0120answers": 9172,
"\u0120denote": 9173,
"rition": 9174,
"\u0120Control": 9175,
"\u0120pin": 9176,
"power": 9177,
"\u01201980": 9178,
"Result": 9179,
"MB": 9180,
"umes": 9181,
"\u0120View": 9182,
"\u0120candidates": 9183,
"\u0120differ": 9184,
"\u0120finger": 9185,
"\u0120examine": 9186,
"\u0120cro": 9187,
"sign": 9188,
"\u0120facilities": 9189,
"CIT": 9190,
"\u0120curves": 9191,
"\u0120furn": 9192,
"\u0120feels": 9193,
"fd": 9194,
"\u0120buildings": 9195,
"\u0120pip": 9196,
"\u0120mutations": 9197,
"blog": 9198,
"\u0120110": 9199,
"\u0120shel": 9200,
"anol": 9201,
"\u0120afraid": 9202,
"\u00ce\u0143": 9203,
"2005": 9204,
"\u0120surgical": 9205,
"\u0120Object": 9206,
"yst": 9207,
"\u0120temperatures": 9208,
"\u0120incred": 9209,
"vas": 9210,
"\u00d8\u00af": 9211,
"\u0120assign": 9212,
"}+\\": 9213,
"\u0120permission": 9214,
"\u0120shoulder": 9215,
"\u0120eigen": 9216,
"ochond": 9217,
"\u0120Jul": 9218,
"\u0120\u0120\u0120\u0120\u0120\u0120\u0120\u0120\u0120\u0120\u0120\u0120\u0120\u0120\u0120\u0120\u0120\u0120\u0120\u0120\u0120\u0120\u0120\u0120\u0120\u0120\u0120\u0120": 9219,
"\u010a\u0109\u0109\u0109\u0109\u0109\u0109": 9220,
"\u0120Haw": 9221,
"\u0120assault": 9222,
"\u0124\u00ac": 9223,
"\u0120Plan": 9224,
"\u0120Prov": 9225,
"iden": 9226,
"Supplementary": 9227,
"}/": 9228,
"center": 9229,
"\u00c4\u0127": 9230,
"rants": 9231,
"\u0120capture": 9232,
"\u0120RT": 9233,
"++)": 9234,
"\u0120HT": 9235,
"ige": 9236,
"\u0120syndrome": 9237,
"\u0120neutral": 9238,
"\u0120hate": 9239,
"\u0120Those": 9240,
"\u0120principles": 9241,
"\u0120SU": 9242,
"\u0120younger": 9243,
"Su": 9244,
"si": 9245,
"\u0120legs": 9246,
"\u00d0\u00b5\u00d0\u00bb": 9247,
"utch": 9248,
"ourse": 9249,
"yles": 9250,
"\u0120Pan": 9251,
"output": 9252,
"\u0120supra": 9253,
"\u0120inqu": 9254,
"\u0120aside": 9255,
"\u0120Iraq": 9256,
"\u0120carefully": 9257,
"inson": 9258,
"]);": 9259,
"\u0120intelligence": 9260,
"\u0120transformation": 9261,
"\u0120submitted": 9262,
"Bu": 9263,
"***": 9264,
"ircraft": 9265,
"\u0120crystal": 9266,
"\u0120soc": 9267,
"\u0120east": 9268,
"\u0120posted": 9269,
"Frame": 9270,
"\u0120Lib": 9271,
"\u0120Put": 9272,
"\u0120screening": 9273,
"idents": 9274,
"pdf": 9275,
"\u0120IC": 9276,
"\u0120WITH": 9277,
"GET": 9278,
"\u0120fruit": 9279,
"\u0120\u00c2\u00bb": 9280,
"Okay": 9281,
"\u0120therapeutic": 9282,
"oir": 9283,
"\u0120refused": 9284,
"\u0120coc": 9285,
"\u0120exhaust": 9286,
"\u0120remind": 9287,
"\u0120acquired": 9288,
"anish": 9289,
"card": 9290,
"lymp": 9291,
"tax": 9292,
"spe": 9293,
"Handler": 9294,
"\u0120recover": 9295,
"rat": 9296,
"\u0120edges": 9297,
"\u0120reserv": 9298,
"isely": 9299,
"\u0120updated": 9300,
"Next": 9301,
"\u0120succeed": 9302,
"\u0120biom": 9303,
"Mon": 9304,
"\u0120raw": 9305,
"ned": 9306,
"uma": 9307,
"DP": 9308,
"\u0120Georg": 9309,
"\u0120drag": 9310,
"\u0120publication": 9311,
"125": 9312,
"\u0120rain": 9313,
"erk": 9314,
"qquad": 9315,
"SYS": 9316,
"\u0120logic": 9317,
"][@": 9318,
"\u0120posts": 9319,
"\u0120chamber": 9320,
"iva": 9321,
"\u0120carcin": 9322,
"Cons": 9323,
"OB": 9324,
"ador": 9325,
"\u0120surprise": 9326,
"ski": 9327,
"they": 9328,
"\u0120radical": 9329,
"\u012085": 9330,
"\u0120fault": 9331,
"arser": 9332,
"\u0120Division": 9333,
"GT": 9334,
"nic": 9335,
"]\"": 9336,
"fill": 9337,
"\u0120alive": 9338,
"ZE": 9339,
"Results": 9340,
"\u0120businesses": 9341,
"\u0120wra": 9342,
"PCR": 9343,
"obj": 9344,
"\u00e3\u0124\u012e": 9345,
"asts": 9346,
"\u0120initi": 9347,
"\u0120alk": 9348,
"method": 9349,
"\u0120\\*": 9350,
"\u0120kinds": 9351,
"illy": 9352,
"\u0120committee": 9353,
"\u01201994": 9354,
"\u0120planned": 9355,
"oxy": 9356,
"ped": 9357,
"ester": 9358,
"\u0120sod": 9359,
"\u0120disorders": 9360,
"\u0120ourselves": 9361,
"\u0120Die": 9362,
"\u0120maintenance": 9363,
"\u0120incidence": 9364,
"\u0120faces": 9365,
"\u0120somewhere": 9366,
"aved": 9367,
"\u0120Call": 9368,
"\u0120happening": 9369,
"\u0120crack": 9370,
"\u0120helpful": 9371,
"\u0120counts": 9372,
"\u0120orth": 9373,
"\u0120gest": 9374,
"\u0120Thanks": 9375,
"\u0120assumption": 9376,
"\u0120broke": 9377,
"\u0120battery": 9378,
"Ob": 9379,
"\u0120papers": 9380,
"\u0120rotation": 9381,
"avas": 9382,
"\u0120cov": 9383,
"\u0120Rock": 9384,
"\u0120Virginia": 9385,
"\u0120wonderful": 9386,
"Pa": 9387,
"lar": 9388,
"two": 9389,
"\u00c3\u00a9n": 9390,
"\u0120gall": 9391,
"amente": 9392,
"ifer": 9393,
"\u0120Ama": 9394,
"Create": 9395,
"\u0120Lake": 9396,
"cribed": 9397,
"\u0120wearing": 9398,
"iox": 9399,
"\u0120topic": 9400,
"iro": 9401,
"\u0120tube": 9402,
"\u0120normally": 9403,
"\u0120CS": 9404,
"\u0120Hot": 9405,
"\u0120aggreg": 9406,
"\u0120asc": 9407,
"\u0120spectra": 9408,
"onia": 9409,
"\u0120contents": 9410,
"\u0120vehicles": 9411,
"\u0120rib": 9412,
"\u0120discover": 9413,
"\u0120reader": 9414,
"treated": 9415,
"\u0120ein": 9416,
"\u0120serving": 9417,
"\u0120:)": 9418,
"\u0120prohib": 9419,
"\u0120Academ": 9420,
"\u0120surfaces": 9421,
"\u0120Ant": 9422,
"\u0120Check": 9423,
"\u0120Name": 9424,
"\u0120mas": 9425,
"\u0120Capt": 9426,
"\u00d9\u0129": 9427,
"\u0120suppose": 9428,
"icide": 9429,
"2004": 9430,
"NC": 9431,
"har": 9432,
"\u0120applying": 9433,
"ASE": 9434,
"\u00c3\u00a1n": 9435,
"\u0120conversion": 9436,
"\u0120attempts": 9437,
"server": 9438,
"00000": 9439,
"idential": 9440,
"\u0120infer": 9441,
"\u0120insulin": 9442,
"\u0120&\\": 9443,
"\u0120nurs": 9444,
"\u0120\u00d8\u00a7\u00d9\u0126": 9445,
"\u0120recognize": 9446,
"\u0120moral": 9447,
"oids": 9448,
"\u0120Christmas": 9449,
"loc": 9450,
"\u0120copyright": 9451,
"\u0120manip": 9452,
"when": 9453,
"\u0120depression": 9454,
"\u0120journey": 9455,
"mond": 9456,
"rene": 9457,
"bound": 9458,
"\u0120regime": 9459,
"OOST": 9460,
"\u0120rose": 9461,
"\u0120Canadian": 9462,
"\u0120EV": 9463,
"\u0120transcription": 9464,
"EXT": 9465,
"OCK": 9466,
"\u00e3\u0125\u00b3": 9467,
"dem": 9468,
"\u0120patent": 9469,
"\u0120extensive": 9470,
"\"}),": 9471,
"\u0120Color": 9472,
"||": 9473,
"\u0120controvers": 9474,
"\u0120presum": 9475,
"attering": 9476,
"scill": 9477,
"\u0120injuries": 9478,
"\u0120sharp": 9479,
"\u0120gel": 9480,
"leep": 9481,
"ARR": 9482,
"\u0120comprehens": 9483,
"\u0120symbol": 9484,
"\u0120OS": 9485,
"private": 9486,
"xiety": 9487,
"\u0120abandon": 9488,
"\u0120proliferation": 9489,
"rolog": 9490,
"\u0120Services": 9491,
"rh": 9492,
"\u0120historical": 9493,
"Hel": 9494,
"\u0120transferred": 9495,
"}}^{": 9496,
"\u0120Lo": 9497,
"%),": 9498,
"Ke": 9499,
"\u0120dos": 9500,
"mathsf": 9501,
"]]": 9502,
"\u0120roles": 9503,
"\u00e5\u013e": 9504,
"Status": 9505,
"\u0120moments": 9506,
"COM": 9507,
"\u0120versions": 9508,
"\u0120facility": 9509,
"\u0120boost": 9510,
"home": 9511,
"emia": 9512,
"\u0120begins": 9513,
"\u0120\u00d0\u00b1": 9514,
"gence": 9515,
"\u0120Hamilton": 9516,
"\u0120Appellant": 9517,
"ogether": 9518,
"250": 9519,
"fortunately": 9520,
"\u0120requested": 9521,
"ologic": 9522,
"\u012066": 9523,
"\u0120Ig": 9524,
"ruption": 9525,
"\u0120Secretary": 9526,
"\u0120das": 9527,
"olid": 9528,
"\u0120\u00cf\u0125": 9529,
"\u0120wheel": 9530,
"\u0120\u0120\u0120\u0120\u0120\u0120\u0120\u0120\u0120\u0120\u0120\u0120\u0120\u0120\u0120\u0120\u0120\u0120\u0120\u0120\u0120\u0120\u0120\u0120\u0120\u0120\u0120\u0120\u0120": 9531,
"\u0120acids": 9532,
"\u0120Ari": 9533,
"\u0120situations": 9534,
"\u0120Interest": 9535,
"NAME": 9536,
"\u0120Corp": 9537,
"\u0120fiber": 9538,
"\u0120crowd": 9539,
"neq": 9540,
"\u0120History": 9541,
"\u0120complicated": 9542,
"\u0120Labor": 9543,
"\u0120thickness": 9544,
"\u0120Ell": 9545,
"\u0120trib": 9546,
"Mat": 9547,
"\u0120enzyme": 9548,
"\u0120ride": 9549,
"\u0120leadership": 9550,
"\u0120teaching": 9551,
"\u0120sizes": 9552,
"enter": 9553,
"\u0120integration": 9554,
"\u0120acknowled": 9555,
"\u0120Jewish": 9556,
"\u0120nam": 9557,
"\u0120artist": 9558,
"\u0120extreme": 9559,
"\u0120crucial": 9560,
"mode": 9561,
"enger": 9562,
"\u0120reads": 9563,
"ortion": 9564,
"gypt": 9565,
"ACE": 9566,
"\u0120Best": 9567,
"\u0120r\u00c3\u00a9": 9568,
"\u0120introduce": 9569,
"isor": 9570,
"UI": 9571,
"\u0120stands": 9572,
"attr": 9573,
"\u0120bacteria": 9574,
"\u0120songs": 9575,
"pop": 9576,
"\u0120answered": 9577,
"\u0120correlated": 9578,
"\u0120degrad": 9579,
"\u0120gather": 9580,
"anted": 9581,
"anner": 9582,
"\u0120engaged": 9583,
"orne": 9584,
"\u0120Club": 9585,
"Even": 9586,
"erry": 9587,
"\u0120markers": 9588,
"\u00c2\u0122": 9589,
"essions": 9590,
"\u0120performing": 9591,
"\u0120increasingly": 9592,
"ican": 9593,
"ibilities": 9594,
"1999": 9595,
"\u0120religion": 9596,
"\u0120semicon": 9597,
"estion": 9598,
"float": 9599,
"\u0120guidelines": 9600,
"\u0120Mean": 9601,
"\u0120shooting": 9602,
"\u0120producing": 9603,
"Response": 9604,
"\u0120cav": 9605,
"\u0120suffered": 9606,
"estival": 9607,
"\u00c3\u00a4r": 9608,
"elly": 9609,
"\u0120reporting": 9610,
"\u0120conviction": 9611,
"\u0120approval": 9612,
"\u0120Before": 9613,
"aylor": 9614,
"\u0120Es": 9615,
"}^\\": 9616,
"\u0120directory": 9617,
"\u0120instruct": 9618,
"\u0120substantially": 9619,
"\u0120Pac": 9620,
"\u0120ath": 9621,
"irus": 9622,
"iem": 9623,
"Load": 9624,
"\u0120--------------------------------": 9625,
"appoint": 9626,
"frast": 9627,
"\u0120sharing": 9628,
"request": 9629,
"\u0120reliable": 9630,
"onder": 9631,
"\u0120trigger": 9632,
"\u0120owned": 9633,
"uting": 9634,
"\u0120county": 9635,
"\u0120p\u00c3\u00a5": 9636,
"ventions": 9637,
"2019": 9638,
"STR": 9639,
"\u00d0\u00b0\u00d0\u00ba": 9640,
"inical": 9641,
"sequently": 9642,
"\u0120Britain": 9643,
"\u0120lean": 9644,
"\u0120blind": 9645,
"\u0120grade": 9646,
"\u0120soldiers": 9647,
"\u0120fairly": 9648,
"ECT": 9649,
"\u00cf\u0129": 9650,
"\u0120Police": 9651,
"apes": 9652,
"\u0120GL": 9653,
"\u012063": 9654,
"\u0120lens": 9655,
"LECT": 9656,
"\u0120*)": 9657,
"\u0120Among": 9658,
"\u0120permit": 9659,
"\u010a\u0120\u0120\u0120\u0120\u0120\u0120\u0120\u0120\u0120\u0120\u0120\u0120\u0120\u0120": 9660,
"acer": 9661,
"\u0120Clinton": 9662,
"\u00c5\u0141": 9663,
"\u0120Microsoft": 9664,
"dx": 9665,
"\u0120solar": 9666,
"\u0120console": 9667,
"aret": 9668,
"coin": 9669,
"\u0120perfectly": 9670,
"Default": 9671,
"(*": 9672,
"een": 9673,
"\u0120subsequently": 9674,
"FOR": 9675,
"\u0120illegal": 9676,
"Override": 9677,
"\u0120sport": 9678,
")),": 9679,
"\u0120conscious": 9680,
"agues": 9681,
"\u0120circul": 9682,
"Layout": 9683,
"Max": 9684,
"\u0120wet": 9685,
"\"]": 9686,
"Conne": 9687,
"\u0120url": 9688,
"\u00d0\u00be\u00d0\u00b3": 9689,
"itar": 9690,
"append": 9691,
"Ac": 9692,
"\u0120Boston": 9693,
"\u0120treatments": 9694,
"\u0120advoc": 9695,
"\u0120equally": 9696,
"\u0120Corpor": 9697,
"oured": 9698,
"\u0120cognitive": 9699,
"\u0120Order": 9700,
"\u0120adjacent": 9701,
"\u00e1\u00ba": 9702,
"\u0120chose": 9703,
"\u0120Oper": 9704,
"bul": 9705,
"\u0120encoding": 9706,
"THE": 9707,
"\u0120resc": 9708,
"Mar": 9709,
"Stat": 9710,
"\u0120silver": 9711,
"\u0120separation": 9712,
"\u0120addressed": 9713,
"tyle": 9714,
"URL": 9715,
"\u0120purchased": 9716,
"\u0120Err": 9717,
"\u0120Medic": 9718,
"\u0120imper": 9719,
"asi": 9720,
"terday": 9721,
"\u0120$(\\": 9722,
"root": 9723,
"alty": 9724,
"\u01201993": 9725,
"256": 9726,
"\u0120moves": 9727,
"\u0120league": 9728,
"\u0120bridge": 9729,
"\u0120Men": 9730,
"\u0120cere": 9731,
"\u0120teacher": 9732,
"\u0120Korea": 9733,
"\u0120warning": 9734,
"\u0120boat": 9735,
"\u00e3\u0123\u00a3": 9736,
"\u0120\u00ce\u00b5": 9737,
"click": 9738,
"\"\"": 9739,
"\u010a\u0120\u0120\u0120\u0120\u0120\u0120\u0120\u0120\u0120\u0120\u0120\u0120\u0120\u0120\u0120\u0120\u0120\u0120\u0120\u0120\u0120\u0120\u0120\u0120\u0120\u0120\u0120\u0120\u0120\u0120\u0120": 9740,
"\u0120forest": 9741,
"stack": 9742,
"\u012062": 9743,
"NU": 9744,
"\u0120bringing": 9745,
"ilib": 9746,
"ende": 9747,
"\u01201992": 9748,
"\u0120illness": 9749,
"fin": 9750,
"nergy": 9751,
"\u0120Ram": 9752,
"\u0120Development": 9753,
"0000000000000000": 9754,
"2003": 9755,
"\u0120Carolina": 9756,
"\u0120Angeles": 9757,
"\u0120methyl": 9758,
"\u0120presentation": 9759,
"unicip": 9760,
"aph": 9761,
"\u0120requests": 9762,
"\u0120controller": 9763,
"ouch": 9764,
"\u0120alpha": 9765,
"\u0120manifest": 9766,
"\u0120Aff": 9767,
"\u0120neglig": 9768,
"\u0120hybrid": 9769,
"Web": 9770,
"\u0120alloc": 9771,
"attice": 9772,
"\u0120Vis": 9773,
"\u0120oscill": 9774,
"\u0120instruction": 9775,
"\u0120Care": 9776,
"\u0120magnitude": 9777,
"\u0120dies": 9778,
"reams": 9779,
"AK": 9780,
"\u0120liability": 9781,
"\u0120ng": 9782,
")}{": 9783,
"common": 9784,
"IES": 9785,
"urse": 9786,
"\u0120industrial": 9787,
"\u0120sig": 9788,
"auge": 9789,
"\u0120millions": 9790,
"\u0120pra": 9791,
"\u0120Down": 9792,
"\u0120$[": 9793,
"---------": 9794,
"Ret": 9795,
"\u0120favour": 9796,
"\u0120audio": 9797,
"\u0120teach": 9798,
"\u00e2\u0136": 9799,
"\u0120compat": 9800,
"\u0120fee": 9801,
"have": 9802,
"LD": 9803,
"\u0120\u00c2\u00b5": 9804,
"'$": 9805,
"\u0120intel": 9806,
"Open": 9807,
"\u0120Jac": 9808,
"\u0120saved": 9809,
"\u0120tort": 9810,
"\u0120killing": 9811,
"\u0120IR": 9812,
"\u0120infected": 9813,
"\u0120reviewed": 9814,
"second": 9815,
"IND": 9816,
"Like": 9817,
"ARE": 9818,
"{\"": 9819,
"yes": 9820,
"una": 9821,
"ynom": 9822,
"\u0120Mi": 9823,
"Filter": 9824,
"\u0120anywhere": 9825,
"\u0120ordinary": 9826,
"\u0120differentiation": 9827,
"\u0120plenty": 9828,
"\u0120missed": 9829,
"\u0120colors": 9830,
"\u0120mM": 9831,
"Tem": 9832,
"\u0120arrested": 9833,
"addr": 9834,
"\u0120university": 9835,
"\u0120domestic": 9836,
"\u00c3\u00b4": 9837,
"\u0120rein": 9838,
"\u0120phr": 9839,
"\u0120beta": 9840,
"\u0120newly": 9841,
"ermine": 9842,
"\u0120minister": 9843,
"\u0120miR": 9844,
"\u0120entertain": 9845,
"will": 9846,
"\u0120Tre": 9847,
"\u0120comfortable": 9848,
"\u0120Mot": 9849,
"\u00e4\u00b8\u0122": 9850,
"\u0120heads": 9851,
"pin": 9852,
"\u0120quad": 9853,
"~,": 9854,
"[\"": 9855,
"\u0120registered": 9856,
"\u0120Jackson": 9857,
"\u0120Card": 9858,
"\u0120Last": 9859,
"\u0120grid": 9860,
"\u0120surprised": 9861,
"ammation": 9862,
"vals": 9863,
"\u0120simulation": 9864,
"\u0120valuable": 9865,
"nn": 9866,
"Find": 9867,
"\u0120password": 9868,
"las": 9869,
"\u0120Look": 9870,
"\u0120polym": 9871,
"\u0120Top": 9872,
"Cor": 9873,
"avascript": 9874,
"scape": 9875,
"\u0120Does": 9876,
"zi": 9877,
"river": 9878,
"\u0120spectral": 9879,
"\u0120winning": 9880,
"\u0120fingers": 9881,
"\u0120browser": 9882,
"\u0120Spanish": 9883,
"_>": 9884,
"\u0120electrode": 9885,
"\u0120bits": 9886,
"approx": 9887,
"century": 9888,
"lections": 9889,
"\u0120Italian": 9890,
"\u0120owners": 9891,
"\u0120Appeals": 9892,
"\u0120Cast": 9893,
"\u0120periods": 9894,
"\u0120Profess": 9895,
"gal": 9896,
"});": 9897,
"asty": 9898,
"]{}]{}": 9899,
"bet": 9900,
"\u012061": 9901,
"\u0120storm": 9902,
"don": 9903,
"\u0120coupled": 9904,
"\u0120grounds": 9905,
"google": 9906,
"\u0120viral": 9907,
"\u0120passion": 9908,
"\u0120integral": 9909,
"\u0120houses": 9910,
"utory": 9911,
"\u0120blank": 9912,
"160": 9913,
"HR": 9914,
"\u0120Joe": 9915,
"\u0120Rom": 9916,
"Also": 9917,
"razil": 9918,
"\u0120attempted": 9919,
"ycl": 9920,
"\u0120medicine": 9921,
"\u0120Democratic": 9922,
"fficients": 9923,
"\u0120composed": 9924,
"\u00d0\u00b3": 9925,
"perties": 9926,
"\u0120belief": 9927,
"\u0120permanent": 9928,
"\u0120$-": 9929,
"\u0120columns": 9930,
"\u0120lad": 9931,
"ught": 9932,
"\u0120regional": 9933,
"\u012068": 9934,
"\u00e3\u0123\u0128": 9935,
"\u0120consequence": 9936,
"\u0120Despite": 9937,
"\u0120simulations": 9938,
"note": 9939,
"\u0120dedicated": 9940,
"\u0120radius": 9941,
"\u0120GR": 9942,
"\u0120Australian": 9943,
".;": 9944,
"\u0120contributed": 9945,
"\u0120hydrogen": 9946,
"\u0120SM": 9947,
"\u00c4\u0129": 9948,
"\u0120unus": 9949,
"\u0120gentle": 9950,
"\u0120\u00c3\u00a4": 9951,
"\\^": 9952,
"\u0120induction": 9953,
"\u0120aircraft": 9954,
"]\\": 9955,
"\u0120rooms": 9956,
"\u0120advent": 9957,
"\u0120suffering": 9958,
"\u0120clusters": 9959,
"sur": 9960,
"mult": 9961,
"----------": 9962,
"\u012067": 9963,
"\u0120Victor": 9964,
"\u0120laboratory": 9965,
"\u0120Director": 9966,
"agnetic": 9967,
"\u0120cutting": 9968,
"\u0120reactions": 9969,
"\u0120teeth": 9970,
"\u0120rounded": 9971,
"\u0120Italy": 9972,
"|-": 9973,
"\u0120strike": 9974,
"\u0120SP": 9975,
"\u0120decade": 9976,
"inction": 9977,
"\u0120setup": 9978,
"\u0120proud": 9979,
"\u0120stroke": 9980,
"IGHT": 9981,
"\u0120obst": 9982,
">,": 9983,
"ucks": 9984,
"\u0120Find": 9985,
"edef": 9986,
"\u0120coron": 9987,
"\u0120truck": 9988,
"BO": 9989,
"\u0120statistics": 9990,
"\u0120diversity": 9991,
"020": 9992,
"exec": 9993,
"actic": 9994,
"\u0120glad": 9995,
"\u0120transaction": 9996,
"\u0120Sar": 9997,
"-----------": 9998,
"\u0120representing": 9999,
"\u0120busy": 10000,
"$_": 10001,
"who": 10002,
"\u0120institutions": 10003,
"Select": 10004,
"\u0120progression": 10005,
"\u0120modes": 10006,
"\u0120modify": 10007,
"description": 10008,
"\u0120disag": 10009,
"ctic": 10010,
"\u0120SC": 10011,
"\u0120theorem": 10012,
"\u0120grab": 10013,
"\u0120theme": 10014,
"\u0120clothes": 10015,
"2002": 10016,
"\u0120replied": 10017,
"\u0120observe": 10018,
"iginal": 10019,
"\u0120semi": 10020,
"\u0120adverse": 10021,
"\u0120Accordingly": 10022,
"\u0120possession": 10023,
"anche": 10024,
"ruptcy": 10025,
"nership": 10026,
"\u0120decay": 10027,
"\u0120alert": 10028,
"urns": 10029,
"\u0120Key": 10030,
"\u0120Model": 10031,
"\u0120entr": 10032,
"\u0120\u0120\u0120\u0120\u0120\u0120\u0120\u0120\u0120\u0120\u0120\u0120\u0120\u0120\u0120\u0120\u0120\u0120\u0120\u0120\u0120\u0120\u0120\u0120\u0120\u0120\u0120\u0120\u0120\u0120\u0120": 10033,
"hus": 10034,
"\u0120Mike": 10035,
"\u0120Again": 10036,
"alls": 10037,
"\u0120ec": 10038,
"\u0120Spring": 10039,
"\u0120iter": 10040,
"\u00e5\u013d": 10041,
"\u0120-\\": 10042,
"\u0120Royal": 10043,
"\u0120\u00c3\u00ae": 10044,
"idad": 10045,
"\u0120stronger": 10046,
"isons": 10047,
"\u0120satisfied": 10048,
"\u0120Van": 10049,
"chain": 10050,
"\u0120Administ": 10051,
"ictionary": 10052,
"\u0120Donald": 10053,
"\u0120paying": 10054,
"iscussion": 10055,
"\u0120passage": 10056,
"\u0120volunte": 10057,
"\u0120tiny": 10058,
"anny": 10059,
"\u00c4\u013b": 10060,
"\u0120proceedings": 10061,
"\u0120talked": 10062,
"\u0120Blue": 10063,
"auss": 10064,
"\u0120pel": 10065,
"\u0120opposed": 10066,
"\u0120provisions": 10067,
"aration": 10068,
"Format": 10069,
"\u0120vulner": 10070,
"\u0120experts": 10071,
"\u010a\u010a\u0120\u0120\u0120\u0120": 10072,
"\u0120assist": 10073,
"\u0120COU": 10074,
"prot": 10075,
"\u0120scenario": 10076,
"\u00d0\u00b5\u00d0\u00bc": 10077,
"\u0120participate": 10078,
"\u0120Town": 10079,
"\u00d1\u0138": 10080,
"endo": 10081,
"mut": 10082,
"duction": 10083,
"\u0120surprising": 10084,
"\u0120accommod": 10085,
"\u0120tall": 10086,
"\u0120fragment": 10087,
"regulated": 10088,
"\u0120coal": 10089,
"\u0120laid": 10090,
"\u00db\u012e": 10091,
"\u0120Joseph": 10092,
"\u00c3\u00ab": 10093,
"agraph": 10094,
"\u0120shouldn": 10095,
"\u0120dependence": 10096,
"\u0120documentation": 10097,
"\u0120launched": 10098,
"Page": 10099,
"\u00c3\u00b5": 10100,
"\u0120horm": 10101,
"\u0120rom": 10102,
"\u0120dimensions": 10103,
"\u0120profiles": 10104,
"\u0120crypt": 10105,
"\u0120urban": 10106,
"(_": 10107,
"ilation": 10108,
"\u0120Civil": 10109,
"\u0120bomb": 10110,
"\u0120stores": 10111,
"\u0120welcome": 10112,
"\u0120THIS": 10113,
"HA": 10114,
"\u0120gran": 10115,
"\u0120HD": 10116,
"ounder": 10117,
"\u0120Lab": 10118,
"\u0120loan": 10119,
"yd": 10120,
"options": 10121,
"\u0120>=": 10122,
"\u0120reviews": 10123,
"endar": 10124,
"\u0120copies": 10125,
"\u0120statistically": 10126,
"caps": 10127,
"\u0120Ohio": 10128,
"\u0120matches": 10129,
"\u0120schedule": 10130,
"\u0120uintptr": 10131,
"\u0120regulations": 10132,
"\u00c3\u00a8re": 10133,
"txt": 10134,
"\u0120kiss": 10135,
"tx": 10136,
"\u0120Ms": 10137,
"\u0120conform": 10138,
"\u00ce\u00ae": 10139,
"\u0120corresponds": 10140,
"\u0120checked": 10141,
"\u0120inflammatory": 10142,
"\u0120discharge": 10143,
"ropy": 10144,
"\u0120accused": 10145,
"header": 10146,
"ULT": 10147,
"\"}](": 10148,
"\u0120keys": 10149,
"\u0120embry": 10150,
"\u0120nearby": 10151,
"icul": 10152,
"iration": 10153,
"\u0120Right": 10154,
"\u0120breaking": 10155,
"\u0120selling": 10156,
"itan": 10157,
"\u0120Attorney": 10158,
"\u0120regardless": 10159,
"\u0120oste": 10160,
"\u00d0\u00be\u00d1\u0122": 10161,
"\u0120mitochond": 10162,
"\u0120bon": 10163,
"\u0120Organ": 10164,
"\u0120choices": 10165,
"\u0120trained": 10166,
"spring": 10167,
"\u0120Women": 10168,
"\u0120markets": 10169,
"\u0120victory": 10170,
"\u0120involvement": 10171,
"BB": 10172,
"\u0120calculate": 10173,
".^[@": 10174,
"\u0120rows": 10175,
"\u0120Muse": 10176,
"\u0120cardiac": 10177,
"had": 10178,
"cit": 10179,
"\u0120aver": 10180,
"frastructure": 10181,
"\u0120careful": 10182,
"\u0120difficulty": 10183,
"\u0120pushed": 10184,
"\u0120receptors": 10185,
"world": 10186,
"}}}}": 10187,
"\u0120Fort": 10188,
"NR": 10189,
"=(": 10190,
"\u0120plur": 10191,
"pres": 10192,
"arters": 10193,
"\u0120steel": 10194,
"Many": 10195,
"\u0120operate": 10196,
"\u0120HE": 10197,
"\u0120streets": 10198,
"\u0120introduction": 10199,
"\u0120Common": 10200,
"PV": 10201,
"elihood": 10202,
"Gener": 10203,
"\u0120\u0120\u0120\u0120\u0120\u0120\u0120\u0120\u0120\u0120\u0120\u0120\u0120\u0120\u0120\u0120\u0120\u0120\u0120\u0120\u0120\u0120\u0120\u0120\u0120\u0120\u0120\u0120\u0120\u0120": 10204,
"\u0120Water": 10205,
"CG": 10206,
"uer": 10207,
"\u0120fed": 10208,
"\u0120Next": 10209,
"\u0120Bit": 10210,
"minent": 10211,
"\u0120waves": 10212,
"\u0120Daniel": 10213,
"\u0120contrary": 10214,
"\u0120Trust": 10215,
"\u0120prejud": 10216,
"osome": 10217,
"\u0120thro": 10218,
"\u0120suscept": 10219,
"\u0120explo": 10220,
"employ": 10221,
"ultural": 10222,
"\u0120Play": 10223,
"\u0120fails": 10224,
"ois": 10225,
"\u01201991": 10226,
"\u00ce\u00b4": 10227,
"stone": 10228,
"\u0120goods": 10229,
"\u0120apartment": 10230,
"\u0120Young": 10231,
"\u0120fract": 10232,
"iture": 10233,
"\u0120translation": 10234,
"\u0120coefficient": 10235,
"\u0120semiconductor": 10236,
"\u0120robust": 10237,
"\u0120bread": 10238,
"\u0120cooper": 10239,
"amples": 10240,
"{-": 10241,
"\u0120invent": 10242,
"\u0120Line": 10243,
"\u0120Similarly": 10244,
"orse": 10245,
"\u0120Bern": 10246,
"positive": 10247,
"\u0120specim": 10248,
"OK": 10249,
"\u0120wal": 10250,
"\u0120emphas": 10251,
"Red": 10252,
"\u0120Egypt": 10253,
"\u0120momentum": 10254,
"\u0120Columb": 10255,
"\u0120taught": 10256,
"\u0120250": 10257,
"\u0120meth": 10258,
"\u0120adhes": 10259,
"\u0120greatly": 10260,
"~~~~": 10261,
"\u0120presents": 10262,
"\u0120drawing": 10263,
"\u0120manufacturing": 10264,
"\u0120sustain": 10265,
"\u0120opposition": 10266,
"Mem": 10267,
"\u0120facing": 10268,
"\u0120bin": 10269,
"oly": 10270,
"\u00c4\u00ab": 10271,
"\u0120calculation": 10272,
"ande": 10273,
"inking": 10274,
"\u0120ingred": 10275,
"\u0120compliance": 10276,
"\u0120stimulation": 10277,
"\u00c3\u0141": 10278,
"\u0120mad": 10279,
"\u0120repeat": 10280,
"\u0120constitutional": 10281,
"Work": 10282,
"\u0120Si": 10283,
"uten": 10284,
"ynthe": 10285,
"\u0120Education": 10286,
"Str": 10287,
"ariable": 10288,
"\u0120carrier": 10289,
"\u0120moderate": 10290,
"\u0120connections": 10291,
"Min": 10292,
"isition": 10293,
"km": 10294,
"\u0120kernel": 10295,
"\u0120technologies": 10296,
"Tab": 10297,
"\u00ce\u00b1\u00ce\u00b9": 10298,
"\u0120flash": 10299,
"\u0120Given": 10300,
"\u0120restaurant": 10301,
"\u0120computed": 10302,
"\u0120coefficients": 10303,
"\u0120probe": 10304,
"\u0120losing": 10305,
"sized": 10306,
"\u0120efficacy": 10307,
"\u0120stabil": 10308,
"\u0120hardware": 10309,
"\u0120NY": 10310,
"NOT": 10311,
"\u0120guid": 10312,
"\u0120reveal": 10313,
"Pi": 10314,
"\u0120Light": 10315,
"\u0120brings": 10316,
"orial": 10317,
"\u0120Text": 10318,
"\u0120evil": 10319,
"wan": 10320,
"anguages": 10321,
"molecules": 10322,
"\u0120basically": 10323,
"\u00d0\u00b0\u00d0\u00b2": 10324,
"\u0120universe": 10325,
"#:": 10326,
"OF": 10327,
"such": 10328,
"\u0120garden": 10329,
"\u0120Analysis": 10330,
"\u0120tea": 10331,
"\u0120infections": 10332,
"\u01201970": 10333,
"\u0120tab": 10334,
"\u0120ster": 10335,
"\u0120architecture": 10336,
"\u0120Exper": 10337,
"\u0120Make": 10338,
"GS": 10339,
"putation": 10340,
"\u0120arbitrary": 10341,
"Most": 10342,
"\u0120decline": 10343,
"prise": 10344,
"\u0120weren": 10345,
"\u0120migration": 10346,
"\u0120prepare": 10347,
"\u0120Did": 10348,
"\u0120victims": 10349,
"\u0120Constitution": 10350,
"\u0120Far": 10351,
"bas": 10352,
"\u0120accompan": 10353,
"\u0120Jon": 10354,
"likely": 10355,
"iano": 10356,
"\u0120unw": 10357,
"\u0120plug": 10358,
"\u0120substance": 10359,
"\u0120Author": 10360,
"\u00ec\u013f": 10361,
"\u0120ruling": 10362,
"\u0120Ps": 10363,
"ologist": 10364,
"\u0120embod": 10365,
"\u0120xml": 10366,
"mal": 10367,
"porary": 10368,
"\u0120seriously": 10369,
"\u0120bil": 10370,
"Child": 10371,
"\u0120Chapter": 10372,
"aterials": 10373,
"\u0120Lar": 10374,
"\u0120extracted": 10375,
"\u0120pursuant": 10376,
"\u0120symmetry": 10377,
"olly": 10378,
"\u0120butter": 10379,
"\u0120somehow": 10380,
"\u0120Kn": 10381,
"\u0120serial": 10382,
"about": 10383,
"\u0120applies": 10384,
"\u0120privile": 10385,
"\u0120thy": 10386,
"including": 10387,
"\u0120Sa": 10388,
"rig": 10389,
"\u0120honor": 10390,
"eld": 10391,
")}$": 10392,
"\u0120usage": 10393,
"system": 10394,
"Vis": 10395,
"\u0120Special": 10396,
"\u0120anxiety": 10397,
"chem": 10398,
"\u0120MD": 10399,
"\u0120Pers": 10400,
"\u0120diagnostic": 10401,
"\u0120crew": 10402,
"VAL": 10403,
"sys": 10404,
"\u0120summar": 10405,
"\u0120Olymp": 10406,
"ailable": 10407,
"project": 10408,
"\u0120remem": 10409,
"\u0120chlor": 10410,
"\u00d0\u00b9": 10411,
"\u0120crazy": 10412,
"eping": 10413,
"\u0120references": 10414,
"avelength": 10415,
"\u0120hung": 10416,
"\u0120Real": 10417,
"\u0120affirm": 10418,
"\u0120proposal": 10419,
"minus": 10420,
"\u0120Date": 10421,
"aux": 10422,
"limits": 10423,
"oli": 10424,
"rosc": 10425,
"\u0120calculations": 10426,
"\u0120Bow": 10427,
"-------------": 10428,
"\u0120lesions": 10429,
"\u0120sending": 10430,
"HC": 10431,
"\u0120excluded": 10432,
"adata": 10433,
"\u0120assets": 10434,
[...]
